<|pad|>	0
<|bos|>	0
<|eos|>	0
<|unk|>	0
<|user|>	0
<|ava|>	0
<|enduser|>	0
<|endava|>	0
<0x00>	0
<0x01>	0
<0x02>	0
<0x03>	0
<0x04>	0
<0x05>	0
<0x06>	0
<0x07>	0
<0x08>	0
<0x09>	0
<0x0A>	0
<0x0B>	0
<0x0C>	0
<0x0D>	0
<0x0E>	0
<0x0F>	0
<0x10>	0
<0x11>	0
<0x12>	0
<0x13>	0
<0x14>	0
<0x15>	0
<0x16>	0
<0x17>	0
<0x18>	0
<0x19>	0
<0x1A>	0
<0x1B>	0
<0x1C>	0
<0x1D>	0
<0x1E>	0
<0x1F>	0
<0x20>	0
<0x21>	0
<0x22>	0
<0x23>	0
<0x24>	0
<0x25>	0
<0x26>	0
<0x27>	0
<0x28>	0
<0x29>	0
<0x2A>	0
<0x2B>	0
<0x2C>	0
<0x2D>	0
<0x2E>	0
<0x2F>	0
<0x30>	0
<0x31>	0
<0x32>	0
<0x33>	0
<0x34>	0
<0x35>	0
<0x36>	0
<0x37>	0
<0x38>	0
<0x39>	0
<0x3A>	0
<0x3B>	0
<0x3C>	0
<0x3D>	0
<0x3E>	0
<0x3F>	0
<0x40>	0
<0x41>	0
<0x42>	0
<0x43>	0
<0x44>	0
<0x45>	0
<0x46>	0
<0x47>	0
<0x48>	0
<0x49>	0
<0x4A>	0
<0x4B>	0
<0x4C>	0
<0x4D>	0
<0x4E>	0
<0x4F>	0
<0x50>	0
<0x51>	0
<0x52>	0
<0x53>	0
<0x54>	0
<0x55>	0
<0x56>	0
<0x57>	0
<0x58>	0
<0x59>	0
<0x5A>	0
<0x5B>	0
<0x5C>	0
<0x5D>	0
<0x5E>	0
<0x5F>	0
<0x60>	0
<0x61>	0
<0x62>	0
<0x63>	0
<0x64>	0
<0x65>	0
<0x66>	0
<0x67>	0
<0x68>	0
<0x69>	0
<0x6A>	0
<0x6B>	0
<0x6C>	0
<0x6D>	0
<0x6E>	0
<0x6F>	0
<0x70>	0
<0x71>	0
<0x72>	0
<0x73>	0
<0x74>	0
<0x75>	0
<0x76>	0
<0x77>	0
<0x78>	0
<0x79>	0
<0x7A>	0
<0x7B>	0
<0x7C>	0
<0x7D>	0
<0x7E>	0
<0x7F>	0
<0x80>	0
<0x81>	0
<0x82>	0
<0x83>	0
<0x84>	0
<0x85>	0
<0x86>	0
<0x87>	0
<0x88>	0
<0x89>	0
<0x8A>	0
<0x8B>	0
<0x8C>	0
<0x8D>	0
<0x8E>	0
<0x8F>	0
<0x90>	0
<0x91>	0
<0x92>	0
<0x93>	0
<0x94>	0
<0x95>	0
<0x96>	0
<0x97>	0
<0x98>	0
<0x99>	0
<0x9A>	0
<0x9B>	0
<0x9C>	0
<0x9D>	0
<0x9E>	0
<0x9F>	0
<0xA0>	0
<0xA1>	0
<0xA2>	0
<0xA3>	0
<0xA4>	0
<0xA5>	0
<0xA6>	0
<0xA7>	0
<0xA8>	0
<0xA9>	0
<0xAA>	0
<0xAB>	0
<0xAC>	0
<0xAD>	0
<0xAE>	0
<0xAF>	0
<0xB0>	0
<0xB1>	0
<0xB2>	0
<0xB3>	0
<0xB4>	0
<0xB5>	0
<0xB6>	0
<0xB7>	0
<0xB8>	0
<0xB9>	0
<0xBA>	0
<0xBB>	0
<0xBC>	0
<0xBD>	0
<0xBE>	0
<0xBF>	0
<0xC0>	0
<0xC1>	0
<0xC2>	0
<0xC3>	0
<0xC4>	0
<0xC5>	0
<0xC6>	0
<0xC7>	0
<0xC8>	0
<0xC9>	0
<0xCA>	0
<0xCB>	0
<0xCC>	0
<0xCD>	0
<0xCE>	0
<0xCF>	0
<0xD0>	0
<0xD1>	0
<0xD2>	0
<0xD3>	0
<0xD4>	0
<0xD5>	0
<0xD6>	0
<0xD7>	0
<0xD8>	0
<0xD9>	0
<0xDA>	0
<0xDB>	0
<0xDC>	0
<0xDD>	0
<0xDE>	0
<0xDF>	0
<0xE0>	0
<0xE1>	0
<0xE2>	0
<0xE3>	0
<0xE4>	0
<0xE5>	0
<0xE6>	0
<0xE7>	0
<0xE8>	0
<0xE9>	0
<0xEA>	0
<0xEB>	0
<0xEC>	0
<0xED>	0
<0xEE>	0
<0xEF>	0
<0xF0>	0
<0xF1>	0
<0xF2>	0
<0xF3>	0
<0xF4>	0
<0xF5>	0
<0xF6>	0
<0xF7>	0
<0xF8>	0
<0xF9>	0
<0xFA>	0
<0xFB>	0
<0xFC>	0
<0xFD>	0
<0xFE>	0
<0xFF>	0
ის	-0
ებ	-1
და	-2
▁მ	-3
არ	-4
ლი	-5
▁ს	-6
ან	-7
▁და	-8
▁გ	-9
ამ	-10
რო	-11
ვე	-12
ერ	-13
ას	-14
ავ	-15
ად	-16
▁შ	-17
ენ	-18
ში	-19
ეს	-20
▁სა	-21
ინ	-22
ლო	-23
რი	-24
ები	-25
▁ა	-26
▁კ	-27
ვი	-28
▁თ	-29
ების	-30
ება	-31
▁პ	-32
▁რო	-33
▁ი	-34
ალ	-35
ორ	-36
▁არ	-37
▁შე	-38
ობ	-39
ცი	-40
ული	-41
▁უ	-42
ელ	-43
▁მო	-44
▁რ	-45
მა	-46
ტი	-47
▁წ	-48
ურ	-49
ულ	-50
ონ	-51
▁გა	-52
ზე	-53
▁რომ	-54
დი	-55
ვა	-56
ეთ	-57
▁ბ	-58
▁მი	-59
ნი	-60
დე	-61
ართ	-62
ომ	-63
▁ხ	-64
ით	-65
ახ	-66
ელი	-67
ებს	-68
ლის	-69
ათ	-70
აც	-71
▁ჩ	-72
▁ამ	-73
ვის	-74
ემ	-75
▁ფ	-76
▁გამ	-77
ოს	-78
ური	-79
ანი	-80
▁ქ	-81
ერთ	-82
ირ	-83
▁ნ	-84
▁"	-85
გი	-86
ლა	-87
▁ე	-88
ალი	-89
ლობ	-90
ყო	-91
ატ	-92
▁გან	-93
▁დ	-94
▁მე	-95
არი	-96
▁მა	-97
ერი	-98
▁-	-99
რა	-100
▁ტ	-101
ებული	-102
ევ	-103
ებით	-104
მი	-105
▁გამო	-106
▁ის	-107
▁ც	-108
..	-109
მე	-110
▁ვ	-111
ლებ	-112
მო	-113
თან	-114
ვენ	-115
▁სამ	-116
ლე	-117
აკ	-118
▁ყ	-119
ხო	-120
უნ	-121
▁ო	-122
გრ	-123
▁საქ	-124
▁ეს	-125
აში	-126
▁ერთ	-127
ტო	-128
დან	-129
ზი	-130
უს	-131
რე	-132
▁პრო	-133
▁შემ	-134
ოდ	-135
▁ძ	-136
აცი	-137
ვნ	-138
▁სი	-139
თვის	-140
ართვე	-141
▁ინ	-142
ექ	-143
▁თავ	-144
ენტ	-145
▁თუ	-146
▁ას	-147
ილ	-148
წყ	-149
▁შეს	-150
დება	-151
თა	-152
არე	-153
▁ან	-154
აქ	-155
▁გადა	-156
▁აღ	-157
▁(	-158
ისი	-159
▁კი	-160
ველ	-161
ლოს	-162
რობ	-163
აშ	-164
ფი	-165
ისტ	-166
ედ	-167
ვით	-168
აბ	-169
აზ	-170
▁ჯ	-171
ნდა	-172
▁აქ	-173
▁ახ	-174
▁სახ	-175
გან	-176
▁იმ	-177
▁ზ	-178
დეგ	-179
▁დი	-180
▁–	-181
ვერ	-182
▁საქართვე	-183
ნა	-184
▁როგ	-185
ობა	-186
ველა	-187
▁რე	-188
▁რა	-189
ია	-190
ცხ	-191
▁თქ	-192
რის	-193
თავ	-194
ებას	-195
▁არის	-196
ვს	-197
▁ვი	-198
▁უნდა	-199
ხვა	-200
ებულ	-201
უთ	-202
ენი	-203
ობის	-204
ლება	-205
▁ყველა	-206
▁საკ	-207
სი	-208
ინა	-209
▁როგორ	-210
ტის	-211
ნიშ	-212
უმ	-213
ოლო	-214
ელს	-215
დგ	-216
▁მათ	-217
გრამ	-218
ცა	-219
კი	-220
▁წარ	-221
▁დე	-222
▁პირ	-223
▁რომელი	-224
ოთ	-225
▁ღ	-226
▁ჰ	-227
▁დღ	-228
ისა	-229
▁უფ	-230
დეს	-231
ტიკ	-232
ავს	-233
აძ	-234
წი	-235
როს	-236
უშ	-237
უბ	-238
უფ	-239
სახ	-240
ვალ	-241
▁მას	-242
...	-243
▁რომელიც	-244
ლოდ	-245
▁იყო	-246
ვრ	-247
ავი	-248
ვარ	-249
▁არა	-250
ალური	-251
▁უკ	-252
▁კომ	-253
ოლი	-254
▁ად	-255
ლები	-256
თხ	-257
აღ	-258
უხ	-259
დებ	-260
ოდა	-261
▁შეი	-262
ანს	-263
ობს	-264
ოგ	-265
▁იქ	-266
ორის	-267
▁სას	-268
ებში	-269
დის	-270
ლების	-271
დამი	-272
მარ	-273
▁კონ	-274
შვი	-275
ესი	-276
▁თან	-277
▁მომ	-278
სა	-279
▁ასე	-280
▁სტ	-281
▁სხვა	-282
ვან	-283
▁საქართველოს	-284
კო	-285
▁ქვე	-286
▁გარ	-287
ადა	-288
ლად	-289
ველი	-290
▁წლის	-291
▁მაგრამ	-292
არგ	-293
ტერ	-294
▁ადამი	-295
▁ხელ	-296
▁ჩვენ	-297
მის	-298
ინი	-299
▁მისი	-300
▁როგორც	-301
▁შემდეგ	-302
აზე	-303
▁მიმ	-304
უქ	-305
ეტ	-306
ვენი	-307
ორი	-308
ურად	-309
▁ჩემ	-310
▁ორ	-311
ადი	-312
ბი	-313
ყოფ	-314
რულ	-315
ნის	-316
რთ	-317
▁რაც	-318
ფორ	-319
პი	-320
ეთი	-321
ითხ	-322
▁რამ	-323
ექტ	-324
ნენ	-325
ადგ	-326
ნება	-327
ლობა	-328
ეხ	-329
ობი	-330
▁მხ	-331
კავ	-332
შირ	-333
ოფ	-334
ოლ	-335
ონი	-336
ლობის	-337
ცია	-338
▁ვერ	-339
ყენ	-340
▁დას	-341
▁მარ	-342
▁პარ	-343
▁ლ	-344
ტორი	-345
▁მის	-346
ელო	-347
ვანი	-348
ლია	-349
დაც	-350
აგ	-351
▁მს	-352
ვლ	-353
იკ	-354
▁ყო	-355
▁ბი	-356
▁ქვეყ	-357
პირ	-358
▁ვა	-359
ტა	-360
ეთის	-361
იტ	-362
▁დამ	-363
ეგ	-364
ებელი	-365
",	-366
ალიან	-367
რძ	-368
▁სწ	-369
ერს	-370
ამო	-371
ებზე	-372
ინისტ	-373
დენ	-374
▁შეიძ	-375
ციის	-376
▁ნა	-377
▁გავ	-378
▁უფრო	-379
უკ	-380
▁ავ	-381
ალაქ	-382
არა	-383
▁დაი	-384
▁ძალიან	-385
ვილი	-386
▁არს	-387
ქს	-388
დას	-389
er	-390
▁თქვენ	-391
იან	-392
▁პოლი	-393
in	-394
▁მთავ	-395
ტყ	-396
ანა	-397
▁შესახ	-398
იმ	-399
ხვ	-400
მატ	-401
▁რუს	-402
უშა	-403
▁მან	-404
▁ასევე	-405
ისუფ	-406
ანის	-407
▁შეიძლება	-408
▁შესახებ	-409
ხოლოდ	-410
პარ	-411
ატი	-412
ონის	-413
ამდე	-414
▁გახ	-415
ულის	-416
▁ერთი	-417
ვლი	-418
▁ეკ	-419
არის	-420
უძ	-421
▁მხოლოდ	-422
დნენ	-423
▁დიდი	-424
▁ლი	-425
ცე	-426
▁კო	-427
ნიშვნ	-428
ცხად	-429
▁სახელ	-430
▁ადგი	-431
▁საქართველო	-432
▁წყ	-433
ჭი	-434
დო	-435
▁საბ	-436
ფორმა	-437
თხვე	-438
▁წარმო	-439
ვთ	-440
ხე	-441
ებენ	-442
დინ	-443
ქმ	-444
ნიკ	-445
▁იყ	-446
ნიშნ	-447
▁ევ	-448
ერო	-449
ძი	-450
ჩევ	-451
▁შემთხვე	-452
რუნ	-453
an	-454
▁აქვს	-455
ტურ	-456
ებთ	-457
▁მოს	-458
რივი	-459
გრძ	-460
ადგენ	-461
▁მთ	-462
▁საზ	-463
იღ	-464
ასი	-465
▁თუმ	-466
▁წინ	-467
ვითარ	-468
პო	-469
▁შენ	-470
▁მიმართ	-471
იდან	-472
▁თუმცა	-473
ქონ	-474
▁გას	-475
▁შესაძ	-476
on	-477
ხოვრ	-478
▁განს	-479
წავ	-480
▁მკ	-481
აფ	-482
▁დღეს	-483
▁დროს	-484
▁დარ	-485
▁კიდე	-486
▁მიერ	-487
შუ	-488
შინ	-489
ერთი	-490
▁მნიშვნ	-491
▁კომპ	-492
შე	-493
▁ზე	-494
ობას	-495
▁ევრო	-496
▁ახალი	-497
აი	-498
▁შორის	-499
დით	-500
▁სპ	-501
▁წელს	-502
ფერი	-503
▁გი	-504
უდ	-505
ar	-506
აცხ	-507
ადო	-508
ხმარ	-509
▁კან	-510
აციის	-511
ტრ	-512
▁დრო	-513
კის	-514
▁კარ	-515
▁ბავ	-516
▁პროც	-517
▁ერთად	-518
or	-519
წიფ	-520
ლამ	-521
▁პრე	-522
ტე	-523
დენი	-524
ხედ	-525
არს	-526
სახურ	-527
▁ამბ	-528
ვაში	-529
აცია	-530
▁სახელმ	-531
ებაში	-532
ვად	-533
▁საფ	-534
ნე	-535
განი	-536
ვას	-537
ისთვის	-538
▁ორი	-539
ელია	-540
რავ	-541
ბილის	-542
რომ	-543
▁პი	-544
ულად	-545
ებმა	-546
ებულია	-547
▁ინფორმა	-548
ობით	-549
▁საერთ	-550
ყვარ	-551
▁ნი	-552
რების	-553
წმ	-554
▁მოგ	-555
კავშირ	-556
▁ყველაზე	-557
ერა	-558
▁მოხ	-559
ცნ	-560
▁პოლიტიკ	-561
ოცი	-562
თი	-563
უტ	-564
▁გაი	-565
▁კიდევ	-566
ტომ	-567
▁იქნება	-568
ასთან	-569
ენა	-570
ინის	-571
პერ	-572
▁ჩვენი	-573
ძე	-574
ვლის	-575
▁სახელმწიფ	-576
ლს	-577
დგომ	-578
▁საშუ	-579
ართული	-580
შვ	-581
▁უკვე	-582
▁მოქ	-583
▁რომელ	-584
ლებს	-585
ალურ	-586
▁თანამ	-587
ებისთვის	-588
▁დაბ	-589
ორე	-590
ებისა	-591
▁ყოველ	-592
ზა	-593
▁ფი	-594
ცემ	-595
ამართ	-596
ათვის	-597
▁მამ	-598
▁ახალ	-599
ინც	-600
ლობაში	-601
".	-602
▁გამოი	-603
▁,	-604
▁ბევ	-605
en	-606
ხი	-607
▁მიღ	-608
ალის	-609
▁პო	-610
▁თბილის	-611
▁ალ	-612
▁ამის	-613
▁ადამიან	-614
ერის	-615
▁ჭ	-616
არო	-617
▁არც	-618
▁სიმ	-619
▁საკუთ	-620
es	-621
იდ	-622
წყვე	-623
ხმ	-624
▁მართ	-625
უცი	-626
ლებიც	-627
▁ელ	-628
ზად	-629
at	-630
მან	-631
▁ისე	-632
ემი	-633
ებთან	-634
▁/	-635
მავ	-636
▁პრ	-637
▁S	-638
არჯ	-639
▁A	-640
ვეს	-641
▁იგი	-642
▁განვითარ	-643
ედა	-644
დინარე	-645
ეკ	-646
ჯერ	-647
▁|	-648
ვედ	-649
▁ჩემი	-650
ურს	-651
▁რად	-652
ემბ	-653
ებები	-654
▁რამდენი	-655
ზის	-656
ინდა	-657
▁მათი	-658
▁მნიშვნელო	-659
ოლოგი	-660
კვე	-661
დესაც	-662
▁რომლებიც	-663
▁თით	-664
▁C	-665
▁მაღ	-666
არდა	-667
▁ენ	-668
ლებში	-669
ენტი	-670
დომ	-671
ვირ	-672
ორცი	-673
▁აკ	-674
▁ნახ	-675
▁სან	-676
ტერეს	-677
▁რადგან	-678
▁განაცხ	-679
▁თამ	-680
ასუხ	-681
ენტის	-682
ოგადო	-683
▁მონ	-684
განიზ	-685
▁საქართველოში	-686
▁როდესაც	-687
▁მიიღ	-688
თხო	-689
▁წინა	-690
▁ჩა	-691
▁მაგ	-692
▁ჟ	-693
▁მიზ	-694
რება	-695
ინო	-696
ებოდა	-697
ვები	-698
).	-699
▁იყოს	-700
ჭირ	-701
ლით	-702
▁საზოგადო	-703
ოფლი	-704
როვნ	-705
ანია	-706
▁თავის	-707
ოკ	-708
▁სადაც	-709
▁ცნ	-710
▁პირველი	-711
რები	-712
რობის	-713
▁არსებ	-714
ებდა	-715
აშვი	-716
ეთა	-717
რივ	-718
რით	-719
ქვს	-720
ტორ	-721
▁ისინი	-722
▁ცი	-723
▁P	-724
▁დაგ	-725
აბამ	-726
▁ორგანიზ	-727
▁ცხოვრ	-728
▁შესაძლებ	-729
▁შემთხვევაში	-730
▁ვე	-731
▁თქვენი	-732
▁საკითხ	-733
დები	-734
▁მსოფლი	-735
▁აზ	-736
▁საშუალ	-737
▁მეტი	-738
ჯახ	-739
აჩ	-740
▁ნაკ	-741
▁მშ	-742
▁დღე	-743
▁ძალ	-744
ჭირო	-745
ძღ	-746
▁პრობ	-747
ჩე	-748
▁შემო	-749
▁მოი	-750
აღმ	-751
▁ფორ	-752
ხს	-753
ავად	-754
▁განცხად	-755
▁დაკავშირ	-756
ჩევნ	-757
▁ცენტ	-758
▁მეტ	-759
▁შედეგ	-760
▁I	-761
▁რამდენიმე	-762
is	-763
▁M	-764
ლეს	-765
მომ	-766
al	-767
ცელ	-768
ელის	-769
▁განაცხადა	-770
▁სახელმწიფო	-771
წარ	-772
▁უმ	-773
▁რას	-774
▁განმავ	-775
▁ტრ	-776
მით	-777
ტუ	-778
პის	-779
▁განმავლობაში	-780
ულია	-781
▁გარდა	-782
▁დან	-783
▁მეორე	-784
თქ	-785
▁ვარ	-786
▁ფაქ	-787
▁არას	-788
▁სწორ	-789
▁რი	-790
▁პირველ	-791
▁საუკ	-792
▁აშ	-793
გის	-794
ჩი	-795
დარ	-796
წვე	-797
ონომ	-798
ed	-799
▁საჭირო	-800
▁მაშინ	-801
ელსაც	-802
რონ	-803
ენის	-804
აა	-805
▁წევ	-806
აბი	-807
▁სისტ	-808
),	-809
წოდ	-810
▁მთავარი	-811
ვების	-812
▁T	-813
▁ლა	-814
▁სულ	-815
▁გამოყენ	-816
▁შესაბამ	-817
▁შეხ	-818
ჩვენ	-819
წინ	-820
ურის	-821
ნით	-822
▁ბრ	-823
▁გარე	-824
რცელ	-825
მაც	-826
ტან	-827
▁მუშა	-828
▁ოჯახ	-829
▁ქალ	-830
▁ფეხ	-831
▁ახლა	-832
ქი	-833
▁რომელსაც	-834
პორ	-835
ედი	-836
▁სხვადას	-837
ეთში	-838
▁ბოლო	-839
ორციელ	-840
ერე	-841
აღმდეგ	-842
ვლე	-843
▁მონა	-844
▁მუ	-845
ვამ	-846
▁ხალ	-847
ფიცი	-848
ვალი	-849
om	-850
ვარი	-851
▁როცა	-852
ემა	-853
წყვეტი	-854
▁სხვადასხვა	-855
▁B	-856
ურთ	-857
▁მნიშვნელოვანი	-858
ზრ	-859
▁t	-860
აზრ	-861
▁ხოლო	-862
▁კარგ	-863
▁ჯერ	-864
▁ტექ	-865
ყვან	-866
ევს	-867
▁დაც	-868
ვალის	-869
▁პასუხ	-870
ულო	-871
არჩ	-872
ნეს	-873
▁ქალაქ	-874
ქონდა	-875
დრე	-876
▁პატ	-877
რული	-878
▁პრეზი	-879
ტს	-880
შვილი	-881
ათა	-882
▁ლო	-883
ებების	-884
რებული	-885
ძლი	-886
▁შექმ	-887
რობა	-888
▁გიორ	-889
▁აგ	-890
ლმა	-891
ექტი	-892
მედ	-893
ღაც	-894
უჩ	-895
ინტერეს	-896
▁ძი	-897
ლემ	-898
კურ	-899
▁ხელისუფ	-900
▁სკო	-901
დუქ	-902
▁G	-903
▁N	-904
ებლად	-905
▁უბ	-906
წილე	-907
▁ექს	-908
▁ჯან	-909
ge	-910
ხის	-911
ოში	-912
▁აფ	-913
it	-914
st	-915
▁თვით	-916
▁მწ	-917
ონომიკ	-918
ორისო	-919
ეც	-920
▁ლე	-921
წყო	-922
რთი	-923
უცილებ	-924
▁ბო	-925
▁ისტორი	-926
▁შეუძ	-927
აკუთ	-928
▁აბ	-929
▁ამო	-930
▁მც	-931
აშვილი	-932
ათი	-933
ლობას	-934
ლას	-935
▁სოფ	-936
აშორისო	-937
▁ბავშვ	-938
▁აუცილებ	-939
▁საქმე	-940
ხელ	-941
▁შეხვედ	-942
▁ასეთი	-943
▁მონაწილე	-944
▁პერი	-945
▁პროგრამ	-946
▁დაუ	-947
ტრო	-948
ავთ	-949
▁იც	-950
ონს	-951
ებრივი	-952
▁ურთი	-953
▁საგ	-954
▁არიან	-955
ლში	-956
აზი	-957
▁ურთიერთ	-958
რან	-959
იგ	-960
▁პროცეს	-961
ქსი	-962
▁ეროვნ	-963
ალო	-964
ეცი	-965
▁დავ	-966
▁ნაწი	-967
▁საერთაშორისო	-968
▁ქართვე	-969
▁განხ	-970
▁აღნიშნ	-971
▁წარმომ	-972
ახლო	-973
▁საუბ	-974
აძე	-975
ინანს	-976
▁ეკონომიკ	-977
ართულ	-978
▁მდგომ	-979
▁ჯგ	-980
ეფ	-981
▁სის	-982
ეთეს	-983
▁ბევრი	-984
▁აქტი	-985
▁აღმო	-986
▁უზ	-987
ციას	-988
▁გიორგი	-989
ფიქ	-990
▁ადამიანი	-991
ავლ	-992
▁ტი	-993
▁ყველ	-994
▁პროდუქ	-995
▁სწორედ	-996
▁სიტყ	-997
▁გუნ	-998
▁რეს	-999
▁ნამ	-1000
▁კარგი	-1001
▁დამო	-1002
▁უც	-1003
ზავ	-1004
▁გადაწყვეტი	-1005
ტეს	-1006
ტრი	-1007
▁მინისტ	-1008
ყოფი	-1009
▁სოცი	-1010
ალურად	-1011
▁ცო	-1012
დამ	-1013
ლესი	-1014
ტკი	-1015
▁ჩამო	-1016
ტები	-1017
▁ქვეყან	-1018
▁გამოც	-1019
▁გვ	-1020
ღი	-1021
▁მიმდინარე	-1022
▁ქვეყნის	-1023
ერძ	-1024
▁ნათ	-1025
ვლა	-1026
▁რომლის	-1027
▁მდგომარე	-1028
he	-1029
ებო	-1030
▁განსაკუთ	-1031
▁ხელმ	-1032
ურნ	-1033
ფას	-1034
▁ცხ	-1035
▁დაწ	-1036
▁სამინისტ	-1037
ატარ	-1038
▁მეც	-1039
▁ყველაფერი	-1040
▁სამუშა	-1041
ic	-1042
▁წარმომადგენ	-1043
ალით	-1044
▁არსებობს	-1045
▁სასამართ	-1046
შრომ	-1047
რეს	-1048
რაფ	-1049
▁თვალ	-1050
ციპ	-1051
▁მედი	-1052
▁განათ	-1053
რად	-1054
▁მაინც	-1055
ებაზე	-1056
▁ათ	-1057
▁პარტი	-1058
ლებას	-1059
▁მოძ	-1060
▁პარლამ	-1061
იც	-1062
წე	-1063
▁გამომ	-1064
▁სავ	-1065
▁გამოს	-1066
ობაში	-1067
ტების	-1068
ენს	-1069
ებელ	-1070
▁ემ	-1071
re	-1072
▁იმის	-1073
აპ	-1074
▁ინს	-1075
ონა	-1076
▁ხშირ	-1077
▁მეგ	-1078
▁ამერი	-1079
▁ინტერ	-1080
▁მოსახ	-1081
ფრ	-1082
იტომ	-1083
le	-1084
▁დაკ	-1085
▁მილი	-1086
ალდ	-1087
▁სამართ	-1088
წილ	-1089
კეთ	-1090
▁კომპანი	-1091
ჯი	-1092
ატომ	-1093
▁გოგ	-1094
▁მრავ	-1095
საფ	-1096
▁არამ	-1097
▁ამიტომ	-1098
▁ბიზ	-1099
ვიდა	-1100
▁ქართული	-1101
▁ხდება	-1102
გო	-1103
▁ვინ	-1104
▁საკუთარი	-1105
▁გზ	-1106
▁თავისი	-1107
ობილი	-1108
აზღ	-1109
▁ღირ	-1110
▁ექ	-1111
ლობით	-1112
▁ოქ	-1113
▁გვა	-1114
▁s	-1115
დეთ	-1116
▁დიდ	-1117
ლიან	-1118
ზღ	-1119
▁მოკ	-1120
ატის	-1121
▁თავისუფ	-1122
▁ვის	-1123
პრო	-1124
▁ზო	-1125
▁შეგი	-1126
ვალისწინ	-1127
მოს	-1128
▁მთელი	-1129
▁სურ	-1130
▁თითქ	-1131
ავის	-1132
▁თანამშრომ	-1133
▁პრობლემ	-1134
▁კარგად	-1135
▁ფილ	-1136
▁რეგი	-1137
▁კვი	-1138
▁უკან	-1139
ძღვან	-1140
▁ხშირად	-1141
უნქ	-1142
▁ბან	-1143
ფერ	-1144
▁ბრძ	-1145
არული	-1146
▁გრძ	-1147
გაზრ	-1148
▁არჩევნ	-1149
▁ამას	-1150
თავაზ	-1151
ვია	-1152
ad	-1153
▁გვერ	-1154
▁F	-1155
უსი	-1156
მდე	-1157
▁შესაბამის	-1158
ასა	-1159
მინისტ	-1160
ურა	-1161
▁სპეცი	-1162
▁შეგ	-1163
▁დაავად	-1164
ლან	-1165
უხედა	-1166
დებოდა	-1167
▁პრეზიდ	-1168
ებად	-1169
▁წამ	-1170
▁ტერი	-1171
▁სახე	-1172
▁ეფ	-1173
▁მეს	-1174
▁ჩვენს	-1175
▁შეც	-1176
▁საათ	-1177
▁კრი	-1178
ვება	-1179
ოდენ	-1180
▁თავს	-1181
რაქ	-1182
▁ხან	-1183
▁კავ	-1184
▁აპ	-1185
ებიდან	-1186
ემო	-1187
ებითი	-1188
კა	-1189
▁პროფ	-1190
▁m	-1191
უხედავად	-1192
▁დაკავშირებით	-1193
▁სამუშაო	-1194
▁[	-1195
ეტი	-1196
▁შეძ	-1197
▁ნიშნ	-1198
▁პერიოდ	-1199
▁ბუნ	-1200
▁რატომ	-1201
▁R	-1202
▁ტერიტორი	-1203
ობდა	-1204
ხედვით	-1205
დად	-1206
უდი	-1207
am	-1208
▁მოქალაქ	-1209
▁თქმით	-1210
რებს	-1211
▁კონს	-1212
▁გარეშე	-1213
ალიზ	-1214
რთხო	-1215
აშა	-1216
ოზ	-1217
▁ადამიანის	-1218
ენილი	-1219
▁უსაფ	-1220
▁რის	-1221
▁საბჭ	-1222
ულს	-1223
▁ნების	-1224
კომ	-1225
პოზი	-1226
რაფი	-1227
მრთ	-1228
ნიერ	-1229
პარაკ	-1230
▁გამოიყენ	-1231
et	-1232
▁მოსახლე	-1233
რიდან	-1234
as	-1235
უპ	-1236
შნ	-1237
▁მიუხედავად	-1238
ტული	-1239
▁რუსეთის	-1240
▁ყოფი	-1241
▁მეგობ	-1242
უსის	-1243
▁კულ	-1244
▁აი	-1245
▁ბაზ	-1246
ალისტ	-1247
რებით	-1248
▁გეგ	-1249
il	-1250
დელი	-1251
▁სექტ	-1252
▁რაოდენ	-1253
▁ახალგაზრ	-1254
უღ	-1255
▁აშშ	-1256
ნია	-1257
ac	-1258
ძის	-1259
უშავ	-1260
ებია	-1261
▁აღარ	-1262
▁მიზე	-1263
ზარ	-1264
▁ჯგუფ	-1265
კენ	-1266
▁D	-1267
▁წინააღმდეგ	-1268
▁სისხ	-1269
ვეთ	-1270
▁მატ	-1271
ნელ	-1272
ცო	-1273
▁უსაფრთხო	-1274
წვ	-1275
წმუნ	-1276
ევან	-1277
ამე	-1278
▁ამბობს	-1279
თამ	-1280
▁მიხედვით	-1281
▁ტელ	-1282
უგ	-1283
ვიან	-1284
▁რათა	-1285
▁ფო	-1286
▁შვი	-1287
▁წარმატ	-1288
▁ალბ	-1289
დელ	-1290
▁მაღალი	-1291
▁ში	-1292
ხოვ	-1293
▁თავი	-1294
▁მოძრა	-1295
▁ნებისმი	-1296
ერმ	-1297
▁თე	-1298
▁ეროვნული	-1299
▁საუკეთეს	-1300
რმა	-1301
el	-1302
▁კონკ	-1303
▁მომავ	-1304
ro	-1305
▁მარტი	-1306
▁_	-1307
▁ზოგ	-1308
▁მხარდა	-1309
▁ომ	-1310
ობენ	-1311
ტეტის	-1312
▁ისეთი	-1313
▁თბილისის	-1314
▁...	-1315
▁უნი	-1316
▁სისტემ	-1317
▁დეკ	-1318
▁მაგალით	-1319
წერ	-1320
დვი	-1321
▁ბიზნეს	-1322
ძლიათ	-1323
▁წელი	-1324
▁უნ	-1325
▁ხელს	-1326
▁ჰქონდა	-1327
ტენ	-1328
▁გავრცელ	-1329
▁ნო	-1330
ბურთ	-1331
▁იმა	-1332
ჩნ	-1333
ისმ	-1334
▁შეგიძლიათ	-1335
▁არამედ	-1336
ყურ	-1337
▁ჩამ	-1338
გრძელ	-1339
▁ევროპ	-1340
ვნის	-1341
სენ	-1342
არია	-1343
▁წეს	-1344
▁სერ	-1345
▁სრულ	-1346
▁მცი	-1347
eb	-1348
▁პირობ	-1349
ეული	-1350
ვერსი	-1351
▁L	-1352
არგებ	-1353
▁როგორი	-1354
ინგ	-1355
უკი	-1356
▁იქნ	-1357
▁—	-1358
▁ცვლი	-1359
▁მალ	-1360
▁ანგ	-1361
ონში	-1362
▁საუკეთესო	-1363
▁კვლ	-1364
კიდ	-1365
ვებს	-1366
დეგი	-1367
ჭირდება	-1368
▁დაიწყო	-1369
ხვავ	-1370
▁სრული	-1371
ხილ	-1372
▁შესაძლო	-1373
▁მერე	-1374
დრო	-1375
▁გავი	-1376
im	-1377
მას	-1378
▁დაფ	-1379
▁ჟურნ	-1380
კვ	-1381
▁საქმ	-1382
▁მოუ	-1383
▁სად	-1384
▁წიგ	-1385
აშვილის	-1386
▁ხელი	-1387
ერხ	-1388
▁განვითარების	-1389
▁სამი	-1390
▁პრემი	-1391
▁კულტურ	-1392
ლზე	-1393
ახი	-1394
ტკიც	-1395
▁გულ	-1396
ქვე	-1397
▁შევ	-1398
▁წუთ	-1399
ურადღ	-1400
▁რაღაც	-1401
▁E	-1402
▁დახმარ	-1403
არეს	-1404
▁თამაშ	-1405
აცემ	-1406
▁სტრ	-1407
დიდა	-1408
ავდა	-1409
▁რეგ	-1410
ნილი	-1411
▁კლი	-1412
▁სამსახურ	-1413
▁პოლიტიკური	-1414
▁დედა	-1415
▁განხორციელ	-1416
▁თქვენს	-1417
ვიდ	-1418
▁რაი	-1419
▁გაგ	-1420
▁,,	-1421
ენებ	-1422
მართვე	-1423
▁ქს	-1424
▁p	-1425
მიან	-1426
▁მოთხო	-1427
▁თვის	-1428
▁შინა	-1429
▁W	-1430
"-	-1431
ალა	-1432
▁ზრ	-1433
▁ხომ	-1434
კითხ	-1435
▁ხელმძღვან	-1436
ეზ	-1437
▁გენ	-1438
▁H	-1439
▁მად	-1440
▁ვიცი	-1441
დებარე	-1442
▁გათ	-1443
წევ	-1444
▁მიმართულ	-1445
ფერო	-1446
▁ერთმან	-1447
დილობ	-1448
წარმო	-1449
▁სინ	-1450
▁შესაბამისად	-1451
ტარ	-1452
გე	-1453
▁მსგ	-1454
ლებით	-1455
▁ეტა	-1456
ჯდომ	-1457
▁ტყ	-1458
მედი	-1459
ლიდან	-1460
▁განსხვავ	-1461
▁ქვეყნ	-1462
უმის	-1463
▁უკრა	-1464
შვილის	-1465
ასწ	-1466
▁მომხმარ	-1467
ყოფილ	-1468
▁d	-1469
ელმა	-1470
▁ჩემს	-1471
▁დღის	-1472
ou	-1473
▁ქვეყანაში	-1474
▁ადგილობ	-1475
რუნველ	-1476
▁ხარ	-1477
▁კლ	-1478
ეტის	-1479
აკეთ	-1480
▁უბრა	-1481
▁ცენტრ	-1482
▁მეთ	-1483
▁მსოფლიო	-1484
ტეტ	-1485
▁ძლი	-1486
ყიდ	-1487
ალში	-1488
რუ	-1489
▁სერი	-1490
▁მიწ	-1491
ქალაქ	-1492
ოდი	-1493
▁ფარგ	-1494
▁ვიდრე	-1495
ადგენს	-1496
▁უზრუნველ	-1497
▁ყოველთვის	-1498
ადის	-1499
ამი	-1500
დაპირ	-1501
▁მგ	-1502
თანხმ	-1503
▁დამატ	-1504
ნობ	-1505
უსტ	-1506
▁უნივერსი	-1507
ებიან	-1508
▁.	-1509
ამბ	-1510
▁ვინც	-1511
ეთს	-1512
▁მცირე	-1513
▁კორ	-1514
ღვე	-1515
ent	-1516
რთხ	-1517
▁გარკვე	-1518
ion	-1519
▁ყურადღ	-1520
ებებს	-1521
▁აქვთ	-1522
id	-1523
▁ალბათ	-1524
▁საპ	-1525
დგენ	-1526
მოკ	-1527
ევი	-1528
▁დასრულ	-1529
მაღ	-1530
▁დონ	-1531
▁მონაცემ	-1532
▁იდე	-1533
▁პატარა	-1534
▁პატი	-1535
ავე	-1536
ნო	-1537
▁გახდა	-1538
ძლ	-1539
ექტის	-1540
▁დარჩ	-1541
კლი	-1542
ch	-1543
▁შედეგად	-1544
ულობ	-1545
▁ზღ	-1546
ცემა	-1547
ეში	-1548
▁ფონ	-1549
▁ოპოზი	-1550
▁სხ	-1551
▁b	-1552
▁მოქალაქე	-1553
ნიციპ	-1554
▁რეჟ	-1555
დენად	-1556
ეჭ	-1557
გა	-1558
▁სწავ	-1559
ალს	-1560
▁ფას	-1561
ადგი	-1562
ელში	-1563
▁შენი	-1564
▁ჯანმრთ	-1565
შირის	-1566
▁კანონ	-1567
▁მუნიციპ	-1568
▁ტურ	-1569
▁სასამართლო	-1570
▁დავი	-1571
ენტო	-1572
▁შეუძლია	-1573
გებ	-1574
ტერი	-1575
ობაზე	-1576
▁თავმ	-1577
დაცვის	-1578
▁კატ	-1579
დერ	-1580
ართა	-1581
▁ანუ	-1582
▁ფარგლებში	-1583
▁თურ	-1584
ing	-1585
▁საკმა	-1586
▁პოზი	-1587
ალია	-1588
▁კერძ	-1589
▁შეუ	-1590
▁არსებული	-1591
▁ადრე	-1592
ia	-1593
▁საკუთარ	-1594
▁ისევ	-1595
▁ხარის	-1596
ტოს	-1597
▁მუხ	-1598
ოდეს	-1599
ჯობ	-1600
კური	-1601
▁ინფორმაცია	-1602
ასიათ	-1603
ეი	-1604
ექს	-1605
რილი	-1606
ანტი	-1607
▁თქმა	-1608
დენტი	-1609
ებიც	-1610
▁ბრი	-1611
▁კალ	-1612
▁განი	-1613
▁უწყ	-1614
▁ინფორმაცი	-1615
▁აცხად	-1616
▁ანგარი	-1617
შიც	-1618
რატი	-1619
რებ	-1620
▁დაამ	-1621
▁სპორ	-1622
რია	-1623
ტამ	-1624
ht	-1625
ew	-1626
ებსა	-1627
ონისძი	-1628
▁ოთ	-1629
▁თავმჯდომ	-1630
ძემ	-1631
▁ზოგი	-1632
▁ირ	-1633
აროს	-1634
▁თავად	-1635
▁უცხო	-1636
უმი	-1637
ol	-1638
მენ	-1639
▁მაგალითად	-1640
▁ერთხელ	-1641
▁იღ	-1642
ერგი	-1643
▁ქუჩ	-1644
▁ღონისძი	-1645
▁დაახლო	-1646
▁ნაწილი	-1647
▁საკმაოდ	-1648
%-	-1649
ნელი	-1650
ესტი	-1651
▁დის	-1652
▁საფუძ	-1653
ურო	-1654
▁ფინანს	-1655
ოდნენ	-1656
ნას	-1657
▁შესაძლოა	-1658
ემბერი	-1659
ზიან	-1660
ოლა	-1661
აუბ	-1662
▁მაქვს	-1663
ანიშნ	-1664
წუხ	-1665
▁არაფერი	-1666
რობს	-1667
▁დავით	-1668
დებით	-1669
ჩნდა	-1670
▁საჯ	-1671
▁ელექტ	-1672
ფორმ	-1673
▁უბრალოდ	-1674
▁ჩატარ	-1675
▁მინდა	-1676
▁იან	-1677
▁საქმიან	-1678
ტნი	-1679
▁სამინისტროს	-1680
▁ასაკ	-1681
ვეულ	-1682
▁სიყვარ	-1683
ითხვა	-1684
▁სტი	-1685
▁განსაკუთრებით	-1686
▁ფოტო	-1687
▁საზღ	-1688
▁დაწყ	-1689
▁შეხვედრა	-1690
ხედრო	-1691
ობთ	-1692
უჯ	-1693
▁ბარ	-1694
▁რთ	-1695
▁სახლში	-1696
ხატ	-1697
▁მხარდაჭ	-1698
ებაა	-1699
▁გამარჯ	-1700
▁საინტერეს	-1701
ლიანი	-1702
▁მშობ	-1703
საქ	-1704
▁ამერიკ	-1705
ტური	-1706
ახა	-1707
▁ყოფილი	-1708
ნიშნა	-1709
▁მუნიციპალი	-1710
წინა	-1711
▁სააკ	-1712
მად	-1713
▁ოპერ	-1714
უბლი	-1715
▁გულის	-1716
▁ეხ	-1717
▁ნახევ	-1718
▁ყველას	-1719
ავით	-1720
▁იმი	-1721
▁პერს	-1722
▁მორ	-1723
▁ნაწილ	-1724
▁გვაქვს	-1725
▁უფლება	-1726
▁პრეზიდენტ	-1727
▁სამხედრო	-1728
ურნა	-1729
▁პროფესი	-1730
რექ	-1731
ავა	-1732
ილი	-1733
ცავს	-1734
ელები	-1735
▁:	-1736
▁თა	-1737
ციო	-1738
▁c	-1739
ოსტ	-1740
▁მკურნა	-1741
▁ფიქ	-1742
▁სხე	-1743
▁ბავშ	-1744
ხრ	-1745
▁მრავალ	-1746
▁რასაც	-1747
ვნენ	-1748
▁მარი	-1749
ოც	-1750
▁ეგ	-1751
▁უფლებ	-1752
▁პაცი	-1753
ტომბ	-1754
ტრუქ	-1755
▁V	-1756
▁გაკეთ	-1757
▁კონკრე	-1758
▁მეცნიერ	-1759
▁»	-1760
რიგ	-1761
ობილ	-1762
თავს	-1763
▁რომელმაც	-1764
აციონ	-1765
▁საინტერესო	-1766
▁ნატ	-1767
▁ჯანმრთე	-1768
▁დაბრუნ	-1769
▁დაახლოებით	-1770
აფხ	-1771
თამაშ	-1772
▁დირექ	-1773
▁განათლების	-1774
წავლებ	-1775
▁გამოცდი	-1776
▁o	-1777
▁მუს	-1778
▁ცოტა	-1779
ველის	-1780
ქც	-1781
ენე	-1782
▁ცნობილი	-1783
▁მით	-1784
▁ნორ	-1785
ტაბ	-1786
▁კომპანია	-1787
▁მომსახურ	-1788
ცოცხ	-1789
▁ცდილობ	-1790
▁თითო	-1791
▁მანქ	-1792
▁აღი	-1793
ჯობეს	-1794
▁მნიშვნე	-1795
▁გად	-1796
▁ფართ	-1797
ძლია	-1798
▁ტექნიკ	-1799
ერია	-1800
▁ძირით	-1801
▁მნიშვნელოვანია	-1802
▁დაა	-1803
ავირ	-1804
▁პან	-1805
ერების	-1806
▁კაც	-1807
ებულება	-1808
ამის	-1809
▁შუ	-1810
▁მართლ	-1811
▁ღმ	-1812
▁ოქტომბ	-1813
დომა	-1814
ულა	-1815
▁რიგ	-1816
▁ასეთ	-1817
▁მოხდა	-1818
▁მამაკ	-1819
აციას	-1820
▁ირა	-1821
არჩევნ	-1822
ვალა	-1823
▁საუკუნ	-1824
წყვი	-1825
▁მოვლ	-1826
დგა	-1827
▁კორონ	-1828
ul	-1829
▁ხმა	-1830
▁იმას	-1831
▁შეეხ	-1832
ებდნენ	-1833
▁ნიშნავს	-1834
▁კვლე	-1835
ზეც	-1836
▁ქალი	-1837
▁მივ	-1838
▁წა	-1839
▁სააგ	-1840
იშ	-1841
▁ვითარ	-1842
ვინ	-1843
▁ბოლოს	-1844
▁ნამდვი	-1845
▁ეტაპ	-1846
ლექს	-1847
მინ	-1848
▁უს	-1849
▁დოლ	-1850
and	-1851
▁პროექტ	-1852
▁დაწეს	-1853
დების	-1854
▁ყველაფ	-1855
▁პარტნი	-1856
▁ფუნქ	-1857
▁დოკ	-1858
▁საქმეთა	-1859
ამოს	-1860
ამოვნ	-1861
▁იმისა	-1862
ედრო	-1863
უკიდებ	-1864
▁დამოკიდ	-1865
▁ოცნ	-1866
უმენტ	-1867
▁ადმინისტ	-1868
ვათ	-1869
▁მინ	-1870
▁ხელო	-1871
▁პერიოდში	-1872
რუს	-1873
▁კანდიდა	-1874
▁საგან	-1875
▁ფეხბურთ	-1876
ქმედ	-1877
ციული	-1878
▁ნივთ	-1879
ოლის	-1880
▁დაცვის	-1881
oo	-1882
▁მახ	-1883
▁ნაც	-1884
▁მიზნით	-1885
არაღ	-1886
▁აღნიშნა	-1887
კე	-1888
აციო	-1889
▁პრობლე	-1890
პულ	-1891
მდებ	-1892
▁მიიღო	-1893
აჭ	-1894
▁კორონავირ	-1895
ტალი	-1896
▁მქონ	-1897
▁გე	-1898
us	-1899
ur	-1900
▁w	-1901
▁მერ	-1902
არჩუნ	-1903
▁თვე	-1904
▁შეფას	-1905
▁დახ	-1906
▁ვიდე	-1907
ერში	-1908
▁კითხ	-1909
სო	-1910
▁სისტემა	-1911
ენდა	-1912
▁მიი	-1913
რებულ	-1914
ტიკური	-1915
▁კონტ	-1916
▁ირაკლი	-1917
▁ცხოვრების	-1918
▁ნიკ	-1919
ვნა	-1920
ვნი	-1921
▁ზემო	-1922
▁გაუ	-1923
▁სარ	-1924
▁მოწყ	-1925
▁f	-1926
ტიტ	-1927
შვიდ	-1928
▁გარემ	-1929
▁მარტო	-1930
თის	-1931
ლაპარაკ	-1932
▁ქართველი	-1933
."	-1934
რანგ	-1935
მები	-1936
არჩევნო	-1937
▁ფსი	-1938
▁ჩემპი	-1939
▁დამოუკიდებ	-1940
ვდა	-1941
იმი	-1942
▁მძი	-1943
▁პრობლემა	-1944
ნები	-1945
▁განა	-1946
ერთიან	-1947
▁ეფექტ	-1948
▁სოციალური	-1949
▁ხელშე	-1950
▁ეკლესი	-1951
▁აფხ	-1952
ღე	-1953
un	-1954
▁ოთხ	-1955
▁განახ	-1956
▁მთავრობის	-1957
▁პრემიერ	-1958
▁ზურ	-1959
▁ერ	-1960
▁გაიმ	-1961
▁მომხმარებ	-1962
▁დაიწყ	-1963
▁ეთ	-1964
რს	-1965
შა	-1966
კლ	-1967
▁აღნიშნული	-1968
▁შეთანხმ	-1969
▁გავლ	-1970
▁ცოდ	-1971
კვი	-1972
▁ნაბი	-1973
ლოთ	-1974
▁გადას	-1975
▁სანამ	-1976
ტით	-1977
რისტ	-1978
▁გაქ	-1979
▁ადგილი	-1980
▁ნუ	-1981
ციური	-1982
▁მეტად	-1983
▁კამ	-1984
▁აგვის	-1985
▁დამა	-1986
დებიან	-1987
▁მალე	-1988
▁სამყ	-1989
▁შეეხება	-1990
ულმა	-1991
▁ფიზი	-1992
▁სომ	-1993
ელა	-1994
ჰყ	-1995
▁ოფიცი	-1996
ედროვე	-1997
▁შეე	-1998
▁ივლის	-1999
▁დეპ	-2000
▁იძ	-2001
ცაა	-2002
▁შემოს	-2003
▁J	-2004
წერა	-2005
▁კვლავ	-2006
ტატ	-2007
მოკრატი	-2008
▁O	-2009
▁თავიდან	-2010
▁თბილისში	-2011
▁პარლამენტის	-2012
▁მინი	-2013
▁ქართულ	-2014
დასტურ	-2015
▁სტატი	-2016
კარ	-2017
▁ით	-2018
ოლოგიური	-2019
▁გვი	-2020
ებელია	-2021
ვო	-2022
▁ლარი	-2023
▁დატო	-2024
▁ამასთან	-2025
ხედა	-2026
▁სიცოცხ	-2027
ციები	-2028
ყრ	-2029
▁#	-2030
▁მხრივ	-2031
ხარ	-2032
▁პირი	-2033
▁ორგან	-2034
▁გზა	-2035
▁ხაზ	-2036
▁გამოწვე	-2037
▁მხრიდან	-2038
▁თქვა	-2039
▁ცვლილებ	-2040
▁საჯარო	-2041
რაქტიკ	-2042
▁მოსწავ	-2043
რდი	-2044
▁აღს	-2045
▁აგრ	-2046
ვრის	-2047
▁ტრანს	-2048
▁თითქმის	-2049
▁ხელოვნ	-2050
ზღუდ	-2051
უნი	-2052
ატორი	-2053
▁გათვალისწინ	-2054
ბაი	-2055
ag	-2056
მყოფ	-2057
▁შესაძლებელია	-2058
ედან	-2059
კოს	-2060
▁ინფ	-2061
▁შემცი	-2062
▁თანამედროვე	-2063
ოთა	-2064
მართ	-2065
▁საბოლო	-2066
▁დასახ	-2067
ონია	-2068
ებერ	-2069
av	-2070
ფის	-2071
▁ტო	-2072
▁იწყ	-2073
▁თურქ	-2074
▁ნებისმიერი	-2075
ვირთ	-2076
ანტ	-2077
▁ზომ	-2078
▁ნამდვილად	-2079
ews	-2080
ფე	-2081
ფიქრობ	-2082
ალიბ	-2083
▁ვიყ	-2084
▁პრაქტიკ	-2085
რავი	-2086
▁გაბ	-2087
▁სიტუ	-2088
ულობის	-2089
....	-2090
აძის	-2091
▁ბათ	-2092
▁ადმინისტრა	-2093
▁დააკ	-2094
არში	-2095
მეტეს	-2096
ut	-2097
▁სახელი	-2098
ეშ	-2099
▁შესრულ	-2100
▁მდებარე	-2101
ასკ	-2102
▁კომისი	-2103
▁ინფორმაციით	-2104
▁ფსიქ	-2105
▁პასუხისმ	-2106
▁პროექტის	-2107
▁იცი	-2108
▁წყარო	-2109
ზმ	-2110
ქართული	-2111
ციების	-2112
▁იმიტომ	-2113
▁•	-2114
ost	-2115
▁ბედ	-2116
აქმ	-2117
წინააღმდეგ	-2118
▁კარი	-2119
▁მძიმე	-2120
ცინო	-2121
▁დარღვე	-2122
ულში	-2123
▁კუთ	-2124
▁სკოლა	-2125
▁ხელისუფლების	-2126
▁მაის	-2127
▁ვართ	-2128
▁ადამიანები	-2129
ასრულ	-2130
▁წარმოადგენს	-2131
▁ორგანიზაცი	-2132
ემბერს	-2133
▁თითქოს	-2134
▁საც	-2135
▁სტუმ	-2136
ითი	-2137
▁რესპ	-2138
არქ	-2139
▁ხე	-2140
▁მზად	-2141
▁საერთო	-2142
არზე	-2143
ონო	-2144
▁პროცესი	-2145
▁ჩინ	-2146
▁წერი	-2147
ტუმ	-2148
ადად	-2149
ირი	-2150
▁თემ	-2151
ატე	-2152
▁სხვ	-2153
▁სივრ	-2154
უმჯობეს	-2155
▁უზრუნველყოფ	-2156
▁ტკი	-2157
▁გამომდინარე	-2158
▁სკ	-2159
▁დაკავ	-2160
ელთა	-2161
▁ბატ	-2162
▁მივი	-2163
▁განმარ	-2164
▁გვე	-2165
ყვ	-2166
▁სეზ	-2167
ცენ	-2168
ay	-2169
ულობა	-2170
▁ევროპის	-2171
▁ქუ	-2172
შვილმა	-2173
▁კეთ	-2174
▁პორ	-2175
▁თეთ	-2176
ობები	-2177
▁კონტრო	-2178
▁ადგილზე	-2179
▁მქონე	-2180
▁გამოძი	-2181
აძემ	-2182
▁დადგ	-2183
ნების	-2184
▁მოკლე	-2185
ედიცინო	-2186
ატორ	-2187
პირის	-2188
▁ევროკავ	-2189
!!	-2190
ებათ	-2191
▁მმართვე	-2192
▁თებერ	-2193
ბერ	-2194
▁მცენ	-2195
▁მესამე	-2196
ტში	-2197
ატურ	-2198
▁უარ	-2199
ჯან	-2200
ქვამ	-2201
აშვილმა	-2202
▁ვფიქრობ	-2203
▁ამისა	-2204
▁შეზღუდ	-2205
დემი	-2206
ტია	-2207
უჭ	-2208
ნახ	-2209
▁of	-2210
▁ცხოვრება	-2211
▁ჟურნალისტ	-2212
ავსი	-2213
იბ	-2214
▁პარლამენტ	-2215
▁ვებ	-2216
▁მთლიან	-2217
▁აცხადებს	-2218
▁დასა	-2219
▁დასავლ	-2220
▁სწრაფ	-2221
▁მაქსი	-2222
ონების	-2223
▁მოახ	-2224
?!	-2225
▁ავი	-2226
▁სამო	-2227
▁კოლე	-2228
▁საღ	-2229
▁მიმართულებით	-2230
▁თანხ	-2231
▁ღირს	-2232
ინე	-2233
▁გაა	-2234
▁წერ	-2235
ულების	-2236
არეო	-2237
▁ინტერეს	-2238
▁რეკომ	-2239
▁გადაწყვეტილება	-2240
უდმი	-2241
▁ექიმ	-2242
▁სფერო	-2243
▁პროექტი	-2244
ot	-2245
საქართვე	-2246
▁დაკარგ	-2247
▁იყვნენ	-2248
▁in	-2249
▁სისხლის	-2250
▁აუცილებლად	-2251
ინძ	-2252
▁ონ	-2253
▁მიზეზი	-2254
მალური	-2255
ამა	-2256
▁ივანი	-2257
▁თემა	-2258
▁სახით	-2259
▁ადგილობრივი	-2260
▁მოვლენ	-2261
▁ადამიანს	-2262
ზმის	-2263
▁ექსპერ	-2264
რობას	-2265
▁მსოფლიოს	-2266
ებისგან	-2267
ლამდე	-2268
▁სამშ	-2269
▁მუსიკ	-2270
არდ	-2271
▁ანგარიშ	-2272
▁დეტ	-2273
გას	-2274
ჯე	-2275
რიცხ	-2276
ლებმა	-2277
▁მსგავსი	-2278
ხეილ	-2279
▁მომზად	-2280
▁ინი	-2281
▁საარჩევნო	-2282
▁შესაბამისი	-2283
▁მერი	-2284
▁გარკვეული	-2285
▁მუდმი	-2286
▁უმაღ	-2287
▁შემდგომ	-2288
▁ქმ	-2289
▁the	-2290
სამ	-2291
ენტები	-2292
▁სამედიცინო	-2293
iv	-2294
▁მემ	-2295
▁გუნდ	-2296
▁ვაქც	-2297
▁მისა	-2298
▁ტექნ	-2299
▁თვითმ	-2300
▁სამხრ	-2301
▁დათ	-2302
ომა	-2303
▁ჭი	-2304
▁ჩვეულ	-2305
▁განცხადებით	-2306
▁საი	-2307
გზავ	-2308
ებრივ	-2309
ობრივი	-2310
▁სახელმწიფოს	-2311
▁პოპულ	-2312
ქმე	-2313
ეხმარ	-2314
▁წლებში	-2315
გია	-2316
ov	-2317
▁დემოკრატი	-2318
▁ღვ	-2319
ყავს	-2320
▁სომხ	-2321
▁უსაფრთხოების	-2322
▁სო	-2323
▁მომხ	-2324
▁ნარ	-2325
ხვდა	-2326
▁საშუალებას	-2327
ელად	-2328
▁g	-2329
აზღვრ	-2330
ენდ	-2331
ებინა	-2332
▁ძირითადი	-2333
▁მშენებ	-2334
▁გადაი	-2335
▁ბუნებრივი	-2336
▁კლას	-2337
▁წამო	-2338
იანი	-2339
▁ჩაი	-2340
▁ჩემპიონ	-2341
▁ინგ	-2342
წავლო	-2343
▁რადი	-2344
რჩ	-2345
▁რესპუბლი	-2346
▁მიხეილ	-2347
▁K	-2348
ტიკა	-2349
▁ეკონომიკური	-2350
წევს	-2351
▁ავტორი	-2352
▁სული	-2353
com	-2354
შტაბ	-2355
თავისუფ	-2356
ჩერ	-2357
ვალე	-2358
უალური	-2359
▁საერთოდ	-2360
ელების	-2361
▁სისტემის	-2362
▁ოჯახის	-2363
ებასთან	-2364
▁პრინ	-2365
კვლ	-2366
▁იგივე	-2367
ob	-2368
გვარ	-2369
ებამდე	-2370
ებისას	-2371
▁გაგრძელ	-2372
ter	-2373
▁საშუალება	-2374
▁ახალგაზრდა	-2375
▁ლამ	-2376
▁მიღება	-2377
არმა	-2378
▁შედარ	-2379
▁საფრთხ	-2380
▁საბჭოს	-2381
▁ყოველდ	-2382
ურნე	-2383
▁ჩრდი	-2384
ვლად	-2385
▁გამოყენება	-2386
▁ფაქტ	-2387
▁ჩანს	-2388
ცეს	-2389
პარლამ	-2390
ციონ	-2391
▁შერ	-2392
▁საზოგადოების	-2393
▁კლუბ	-2394
▁საგარეო	-2395
ატრი	-2396
▁თანახ	-2397
ir	-2398
▁ღმერთ	-2399
▁წავი	-2400
▁სახის	-2401
▁დაე	-2402
მული	-2403
▁ძლიერი	-2404
▁გუ	-2405
წვევს	-2406
▁გენერ	-2407
მეტ	-2408
▁ორივე	-2409
ებამ	-2410
▁მიმდინარეობს	-2411
ტანი	-2412
▁მოქმედ	-2413
▁ნომ	-2414
▁თარი	-2415
უსტი	-2416
▁მსოფლიოში	-2417
ურება	-2418
▁სჭირდება	-2419
▁გახს	-2420
გნ	-2421
▁მოსახლეობის	-2422
შია	-2423
ერბაი	-2424
▁ცხოვ	-2425
ინოს	-2426
▁ქვეყანა	-2427
ეზე	-2428
▁დანაშა	-2429
ჟი	-2430
ავალი	-2431
▁ტიპის	-2432
▁ბავშვი	-2433
კუ	-2434
ადმი	-2435
▁მსხ	-2436
მს	-2437
▁ბაღ	-2438
ავია	-2439
▁აკეთ	-2440
▁გადმო	-2441
ავინ	-2442
ქვეყ	-2443
▁მხარე	-2444
▁ინტ	-2445
GE	-2446
ფიკ	-2447
წორ	-2448
▁ფერ	-2449
ვლება	-2450
▁წევრი	-2451
რძალ	-2452
იერ	-2453
▁კომენტ	-2454
ანდა	-2455
გვარი	-2456
კვდი	-2457
წერი	-2458
▁ხუთ	-2459
▁სტუდ	-2460
ურია	-2461
▁ცალ	-2462
დროს	-2463
▁გაე	-2464
▁მამაკაც	-2465
უკა	-2466
▁სერიოზ	-2467
რივად	-2468
▁დარწმუნ	-2469
▁ოთახ	-2470
ობების	-2471
▁რეგიონ	-2472
▁ძალად	-2473
▁მასშტაბ	-2474
▁გადამ	-2475
▁სასამართლოს	-2476
▁წმ	-2477
პორტი	-2478
▁მოსა	-2479
▁გერმ	-2480
▁ხელისუფლება	-2481
ik	-2482
აროდ	-2483
ანგ	-2484
▁ინგლის	-2485
ძინა	-2486
▁ინფორმაციის	-2487
ლისა	-2488
▁მაჩვენ	-2489
▁რომელთა	-2490
ენტების	-2491
შენ	-2492
ბო	-2493
▁ხარჯ	-2494
▁ეტაპზე	-2495
▁ქუთა	-2496
▁პირველად	-2497
ინს	-2498
რემ	-2499
ლივ	-2500
არების	-2501
▁ტრადი	-2502
▁შედარებით	-2503
ვანე	-2504
▁აუცილებელია	-2505
▁მისაღ	-2506
▁ბავშვის	-2507
▁ობი	-2508
▁ჰა	-2509
ითხო	-2510
▁აფხაზე	-2511
▁სრულიად	-2512
//	-2513
შორ	-2514
ყვანა	-2515
ig	-2516
▁უმეტეს	-2517
▁ინფორმაციას	-2518
ბურ	-2519
პან	-2520
▁კვირა	-2521
ადაც	-2522
უსტად	-2523
ლებსაც	-2524
▁გადახ	-2525
▁ევროკავშირის	-2526
▁უამ	-2527
▁იმედი	-2528
▁მოადგი	-2529
▁X	-2530
დნ	-2531
art	-2532
▁ბლო	-2533
შირი	-2534
▁ოს	-2535
ანდ	-2536
რედი	-2537
▁ბიჭ	-2538
▁მიღებული	-2539
▁შეკ	-2540
რავლეს	-2541
ინახ	-2542
em	-2543
დიან	-2544
▁სიკვდი	-2545
ვოკ	-2546
▁იყენ	-2547
▁საინ	-2548
▁წას	-2549
ზო	-2550
ყალიბ	-2551
ინგის	-2552
▁ქვეშ	-2553
ებულმა	-2554
არება	-2555
▁ცნობი	-2556
ვლილი	-2557
▁წლების	-2558
საც	-2559
▁რაიმე	-2560
▁სუ	-2561
▁'	-2562
ბის	-2563
რობით	-2564
▁ვალდ	-2565
▁გარემო	-2566
▁გაერთიან	-2567
▁აზერბაი	-2568
▁გაზრ	-2569
▁სარე	-2570
▁გააკეთ	-2571
▁ბიუჯ	-2572
▁მაღალ	-2573
ახლე	-2574
▁ავტ	-2575
ps	-2576
ირება	-2577
▁სამხრეთ	-2578
ww	-2579
ხით	-2580
▁სოციალურ	-2581
▁სწრაფად	-2582
▁კუნ	-2583
▁უმრავლეს	-2584
ანდარ	-2585
▁ნაკლებ	-2586
▁უპ	-2587
▁პრეს	-2588
▁კომიტ	-2589
კვეთ	-2590
▁მოწ	-2591
ინგი	-2592
▁პასუხისმგებ	-2593
▁უპირ	-2594
ემდე	-2595
ყვანი	-2596
▁ყოველი	-2597
აშე	-2598
▁პრი	-2599
▁ასოცი	-2600
▁სავარა	-2601
▁U	-2602
ხან	-2603
▁დაკავშირებული	-2604
დათ	-2605
ენას	-2606
▁მიკ	-2607
▁ტემ	-2608
▁ჰქონ	-2609
ბა	-2610
▁დაგეგ	-2611
დზე	-2612
▁ტექნოლოგი	-2613
ელებს	-2614
▁მსახ	-2615
კრულ	-2616
▁ხალხი	-2617
htt	-2618
▁გარდაც	-2619
▁რაოდენობა	-2620
▁შედეგი	-2621
▁მოსწავლე	-2622
თხრა	-2623
▁საჭიროა	-2624
▁გაზ	-2625
▁ორს	-2626
▁კაცი	-2627
▁მოვ	-2628
▁უკრაინ	-2629
ec	-2630
▁კლინიკ	-2631
ვილის	-2632
▁სტანდარ	-2633
▁ჰი	-2634
ოგრაფი	-2635
▁სუფ	-2636
▁ყოფ	-2637
▁სტრატე	-2638
ირთ	-2639
ოსი	-2640
▁ვთქ	-2641
▁ფორმა	-2642
ლაინ	-2643
▁ცხო	-2644
▁მასწავლებ	-2645
▁მილიონი	-2646
ჟამ	-2647
ირებული	-2648
▁კითხვა	-2649
▁წლიდან	-2650
▁ლევან	-2651
წია	-2652
ზრდება	-2653
რითა	-2654
▁მოვი	-2655
ფერენ	-2656
▁სკოლის	-2657
▁აღმოს	-2658
://	-2659
▁ვიზი	-2660
ძინ	-2661
ტიან	-2662
ess	-2663
▁საუბარი	-2664
▁გააჩ	-2665
▁შემთხვევა	-2666
ციატი	-2667
▁ყველაფერს	-2668
ვრთ	-2669
▁გარემოს	-2670
მედებ	-2671
▁სამინისტრო	-2672
ეგორი	-2673
ტიტუცი	-2674
ულები	-2675
▁შემდეგი	-2676
ცნობ	-2677
▁ბრიტან	-2678
ვებ	-2679
▁რელი	-2680
▁ტერიტორიაზე	-2681
▁შო	-2682
ვერპ	-2683
▁ინდი	-2684
▁ძალა	-2685
ლებული	-2686
▁გამოიწ	-2687
▁აჭ	-2688
▁ბრალდ	-2689
ტიტუ	-2690
▁ავტო	-2691
ჩქ	-2692
▁ნიშ	-2693
ყვარს	-2694
პირისპირ	-2695
გარ	-2696
ყი	-2697
▁რეკ	-2698
ციაში	-2699
რას	-2700
▁ინვეს	-2701
▁უკეთ	-2702
▁რომელშიც	-2703
▁იცის	-2704
▁სქ	-2705
▁შარ	-2706
ლუ	-2707
▁დო	-2708
ბილი	-2709
ვლით	-2710
ჯის	-2711
▁ანტი	-2712
ვებული	-2713
▁დოკუმენტ	-2714
ნოს	-2715
დაქ	-2716
ცვა	-2717
▁არაა	-2718
▁უფას	-2719
▁ზუსტად	-2720
ყოფილი	-2721
▁სასწავლო	-2722
▁რომლებსაც	-2723
▁წყლის	-2724
▁შექმნა	-2725
um	-2726
▁საკმარ	-2727
▁სოფლის	-2728
მარი	-2729
ადგურ	-2730
ალები	-2731
▁პასუხი	-2732
▁პირდაპირ	-2733
დია	-2734
▁ამერიკის	-2735
II	-2736
ებათა	-2737
▁თავიან	-2738
▁თანახმად	-2739
▁მუნიციპალიტეტის	-2740
▁მატჩ	-2741
▁დაზიან	-2742
▁ნებისმიერ	-2743
▁სასტუმ	-2744
ზმი	-2745
▁წერს	-2746
▁მდგომარეობა	-2747
მების	-2748
უნიკ	-2749
▁ჩავ	-2750
ტვირთ	-2751
▁ვენ	-2752
▁ყურადღება	-2753
▁წინაშე	-2754
ჩევა	-2755
▁ფან	-2756
▁საყვარ	-2757
▁მოთხოვნ	-2758
▁წით	-2759
▁მრავალი	-2760
წვდომ	-2761
▁თამაში	-2762
▁საფუძველ	-2763
▁ჯანდაცვის	-2764
ომპ	-2765
▁გრძელ	-2766
▁განცხადება	-2767
▁ძველი	-2768
▁იმყოფ	-2769
▁განხილ	-2770
▁მადლობა	-2771
▁ერთმანეთს	-2772
▁a	-2773
როთ	-2774
▁ჩემთვის	-2775
ტიკის	-2776
გამ	-2777
▁ალექს	-2778
▁მინისტრის	-2779
os	-2780
▁ბალ	-2781
▁შემადგენ	-2782
▁იარაღ	-2783
▁გვერდით	-2784
საქართველოს	-2785
▁დასაქმ	-2786
▁ფოთ	-2787
რითადად	-2788
მელი	-2789
▁დიზა	-2790
▁თვითონ	-2791
▁ღვთ	-2792
▁ვიყავი	-2793
რობო	-2794
▁ვარი	-2795
▁უარყოფ	-2796
პარტამ	-2797
▁ფასი	-2798
▁წარმოდგ	-2799
ოლმე	-2800
პატი	-2801
ქალაქო	-2802
▁თბილისი	-2803
▁წესი	-2804
▁სერვის	-2805
▁საფრანგ	-2806
▁გადავ	-2807
▁პროცესში	-2808
▁მაღაზი	-2809
ზიდ	-2810
▁იტალი	-2811
ღერ	-2812
ლობს	-2813
▁აღმოჩნდა	-2814
ანში	-2815
▁პრეზიდენტის	-2816
▁on	-2817
▁გამოხატ	-2818
▁გააკ	-2819
▁ინიციატი	-2820
▁სამწუხ	-2821
ation	-2822
▁პრეზიდენტი	-2823
▁ბევრ	-2824
▁წყალი	-2825
▁კომპანიის	-2826
ღვ	-2827
▁გული	-2828
▁პლა	-2829
ირების	-2830
ანო	-2831
დარი	-2832
▁ჯანმრთელობის	-2833
▁მაგი	-2834
▁მოძრაობის	-2835
▁როგორიცაა	-2836
ეულ	-2837
▁ვისაც	-2838
პტი	-2839
▁ურ	-2840
▁ცენტრის	-2841
▁ონლაინ	-2842
ციაზე	-2843
▁იმაზე	-2844
▁იქნა	-2845
▁n	-2846
▁აღმოსავლ	-2847
▁მზ	-2848
▁ფრ	-2849
▁ისეთ	-2850
▁ავტომ	-2851
▁პოლიტიკურ	-2852
ბილ	-2853
▁არჩევნების	-2854
ოვანი	-2855
▁მამა	-2856
▁აზრით	-2857
▁შვილი	-2858
ცენტ	-2859
▁დაწესებულ	-2860
აკი	-2861
▁ხართ	-2862
▁დაბად	-2863
▁დღეში	-2864
▁ქუთაის	-2865
კაც	-2866
▁უნივერსიტეტის	-2867
▁კურს	-2868
▁მექ	-2869
▁რამდენად	-2870
▁განმარტ	-2871
ბატ	-2872
▁ეპი	-2873
კონ	-2874
ზია	-2875
▁ხელშეკრულ	-2876
ასწარ	-2877
ვაზე	-2878
▁ხოლმე	-2879
▁საშუალო	-2880
▁სიყვარული	-2881
▁ძირითადად	-2882
▁მიზეზ	-2883
მეს	-2884
სის	-2885
▁ივნის	-2886
▁იწვევს	-2887
▁ჩრდილო	-2888
▁სპეციალური	-2889
▁რჩ	-2890
ტრა	-2891
უძნ	-2892
ეცხ	-2893
აციონალური	-2894
▁იგ	-2895
დოდა	-2896
ორც	-2897
▁კატეგორი	-2898
▁სამსახურის	-2899
▁შესაძლებლობა	-2900
▁ვინა	-2901
▁ადამიანებს	-2902
არებს	-2903
▁ენერგი	-2904
ურობა	-2905
▁სასწ	-2906
▁შტატ	-2907
ებაც	-2908
ულოს	-2909
▁აპრი	-2910
▁გერმანი	-2911
▁ერთადერთი	-2912
▁ვც	-2913
რებას	-2914
▁მფ	-2915
▁კონფ	-2916
▁აირ	-2917
▁მსახი	-2918
▁კა	-2919
მონ	-2920
▁თანამდებ	-2921
ძეს	-2922
▁ჩან	-2923
ანსი	-2924
▁არჩევ	-2925
▁დეპარტამ	-2926
ორს	-2927
▁რეგულ	-2928
▁მნიშვნელობა	-2929
▁ვიდეო	-2930
▁პარტიის	-2931
ეები	-2932
აციების	-2933
▁გამოქვეყ	-2934
▁აკად	-2935
ძლიერ	-2936
ტეტი	-2937
▁გერ	-2938
▁ათას	-2939
▁საკითხი	-2940
▁ოც	-2941
▁სივრცე	-2942
▁ისიც	-2943
▁თვალს	-2944
▁წმინდა	-2945
▁«	-2946
უდა	-2947
▁ღია	-2948
▁ტური	-2949
ნიერო	-2950
ჩა	-2951
▁ამჟამ	-2952
▁სრულად	-2953
▁დასაწყ	-2954
აბილი	-2955
უმში	-2956
▁კონკრეტული	-2957
▁შესაძლებლობ	-2958
▁სოფელ	-2959
▁წყალ	-2960
▁ხალხ	-2961
▁ოცნების	-2962
▁მშვიდ	-2963
▁ზედ	-2964
▁კონკურ	-2965
▁ნათქვამ	-2966
▁რამდენ	-2967
ებლის	-2968
ედერ	-2969
▁კეთილ	-2970
▁პროკურ	-2971
▁სამოქალაქო	-2972
▁შიდა	-2973
▁ყოველდღი	-2974
პარლამენტო	-2975
ინეს	-2976
▁ლიდ	-2977
▁ნინო	-2978
▁ადამიანების	-2979
▁ბრძოლა	-2980
▁მყ	-2981
▁სურს	-2982
▁ისტორია	-2983
შვე	-2984
▁ომის	-2985
org	-2986
▁ყვ	-2987
ველია	-2988
▁სასარგებ	-2989
▁ჩართ	-2990
ულზე	-2991
არით	-2992
▁მაკ	-2993
▁თარიღი	-2994
▁ეჭ	-2995
▁მიწის	-2996
▁ნაბიჯ	-2997
▁მართვის	-2998
▁მუშაობს	-2999
▁ჩას	-3000
ow	-3001
))	-3002
▁შავი	-3003
▁მტ	-3004
პოლი	-3005
▁რამე	-3006
▁წლამდე	-3007
▁მცენარე	-3008
▁თავდაცვის	-3009
▁საშუალებით	-3010
▁უმაღლესი	-3011
ra	-3012
ვარს	-3013
ხსენ	-3014
▁აპირ	-3015
▁im	-3016
▁მილიონ	-3017
აზღვ	-3018
▁ვირ	-3019
ფიქს	-3020
ახსენ	-3021
▁აქედან	-3022
გვერ	-3023
▁ეძ	-3024
▁სათ	-3025
ლიკ	-3026
პირი	-3027
op	-3028
შემ	-3029
თავრობო	-3030
▁საზოგადოებრივი	-3031
ვებით	-3032
უნა	-3033
ძლევს	-3034
▁დისკ	-3035
▁მოლაპარაკ	-3036
▁კურ	-3037
ლინ	-3038
▁დღემდე	-3039
▁პა	-3040
▁მაქსიმ	-3041
▁htt	-3042
როგ	-3043
ართება	-3044
▁დროის	-3045
ჭერ	-3046
პარატ	-3047
▁ბანკ	-3048
▁თავმჯდომარე	-3049
აქტი	-3050
▁ცეცხ	-3051
▁გზით	-3052
ალების	-3053
აფი	-3054
▁შრო	-3055
▁პირადი	-3056
უზ	-3057
გრძნობ	-3058
▁ქრისტ	-3059
ბრძ	-3060
.-	-3061
იმში	-3062
▁მეუღ	-3063
▁საპარლამენტო	-3064
ტებს	-3065
▁სტატ	-3066
დოს	-3067
ლივი	-3068
ამთ	-3069
ებისათვის	-3070
ID	-3071
▁სააგენტ	-3072
▁ამი	-3073
▁დღევან	-3074
ტულ	-3075
ებდი	-3076
▁სასი	-3077
▁ძაღ	-3078
ვლას	-3079
▁აბს	-3080
▁მკვლე	-3081
ლებთან	-3082
▁ამავე	-3083
▁ხანგრძ	-3084
▁დაღ	-3085
▁ფაქტი	-3086
▁განთავს	-3087
უქი	-3088
▁დაჯ	-3089
▁რთული	-3090
▁მსგავს	-3091
ლიქ	-3092
ისაწვდომ	-3093
▁შინაგან	-3094
ილზე	-3095
▁განსაკუთრებული	-3096
ათლებ	-3097
ქა	-3098
▁ცენტრი	-3099
თუ	-3100
კეტ	-3101
▁ტაძ	-3102
უნდაც	-3103
▁ხნის	-3104
ვიძ	-3105
ment	-3106
▁დეპუტ	-3107
▁წინასწარ	-3108
▁კვირის	-3109
▁მეთოდ	-3110
▁სტრუქ	-3111
▁უძ	-3112
▁გამოიყენება	-3113
ინება	-3114
▁მოგზა	-3115
▁სფეროში	-3116
▁გაიმართა	-3117
▁პანდემი	-3118
უა	-3119
▁პოს	-3120
▁გრძნ	-3121
ფრას	-3122
▁მცხოვრ	-3123
▁გადასახ	-3124
ირკ	-3125
▁ხელმისაწვდომ	-3126
▁ქართ	-3127
▁არსებულ	-3128
▁მისთვის	-3129
▁იქნებოდა	-3130
▁ცუდი	-3131
წონ	-3132
▁გოგონ	-3133
▁ქალაქის	-3134
▁ფინანსური	-3135
ენტს	-3136
▁and	-3137
▁უდი	-3138
▁საცხოვრ	-3139
▁სტრატეგი	-3140
უც	-3141
ტრუქტურ	-3142
▁რესურს	-3143
▁არასდროს	-3144
▁პირობებში	-3145
ერგ	-3146
▁ქარ	-3147
▁სწორი	-3148
▁ანალი	-3149
▁ცხოვრებაში	-3150
ლიმ	-3151
▁სხდომა	-3152
უწყ	-3153
▁In	-3154
ობისა	-3155
▁შეერთ	-3156
▁დაინტერეს	-3157
ეების	-3158
▁კომპი	-3159
რამ	-3160
ლომე	-3161
▁ისაუბ	-3162
▁ისევე	-3163
▁მოიცავს	-3164
▁ამბები	-3165
▁რეგისტ	-3166
რდება	-3167
▁ინფრას	-3168
▁საქმის	-3169
▁პროგრამის	-3170
ატეს	-3171
▁კერძო	-3172
▁სიმპ	-3173
▁ფედერ	-3174
▁თითოეული	-3175
ლებზე	-3176
▁ვერც	-3177
▁ტექს	-3178
▁ახლ	-3179
ლობაზე	-3180
▁მდი	-3181
▁ინფექ	-3182
oc	-3183
▁პრინციპ	-3184
▁სარგებ	-3185
▁მოც	-3186
პყ	-3187
▁მაისი	-3188
რიკ	-3189
▁საში	-3190
▁კვლევ	-3191
▁ტურისტ	-3192
კასი	-3193
ველთა	-3194
▁სახლის	-3195
▁ძალის	-3196
▁კორონავირუსის	-3197
უში	-3198
▁მტკიც	-3199
ტყობ	-3200
▁საბჭოთა	-3201
▁გაფ	-3202
▁გუნდი	-3203
▁შესანიშნ	-3204
▁ლიტერ	-3205
▁არავინ	-3206
▁ფინ	-3207
ეთთან	-3208
ჩეული	-3209
მანათლებ	-3210
▁დამატებითი	-3211
ომი	-3212
▁კაბ	-3213
▁თუნდაც	-3214
▁მოსკო	-3215
▁უკრაინის	-3216
ატურა	-3217
ენდი	-3218
▁ჩამოყალიბ	-3219
▁თევ	-3220
▁მიმო	-3221
▁გაცი	-3222
▁ამაზე	-3223
▁რეგიონში	-3224
ლიათ	-3225
▁მასთან	-3226
▁თორ	-3227
▁ფორმ	-3228
▁გულისხმ	-3229
▁მეურნე	-3230
▁ჯგუფის	-3231
▁ვალ	-3232
რაციის	-3233
▁დაფინანს	-3234
უფი	-3235
▁ზი	-3236
▁ბერ	-3237
▁სტრუქტურ	-3238
▁საკმარისი	-3239
);	-3240
ურობის	-3241
გულ	-3242
უნთქ	-3243
▁მუშაობა	-3244
▁ლიდერ	-3245
▁ხარისხის	-3246
▁რეკომენდა	-3247
შაბ	-3248
▁v	-3249
ბორ	-3250
▁სამართლის	-3251
▁კონფლიქ	-3252
▁ზოგიერთი	-3253
ოლოგია	-3254
▁გინდა	-3255
▁პროგრამა	-3256
ვდება	-3257
▁სამყარო	-3258
პა	-3259
▁ინფრასტრუქტურ	-3260
▁ხალხის	-3261
▁გუშინ	-3262
▁ჩი	-3263
არები	-3264
▁რიგში	-3265
▁განსაზღვრ	-3266
▁დამც	-3267
▁ექსპ	-3268
▁კანონი	-3269
▁უდიდეს	-3270
ცემის	-3271
მოთ	-3272
▁რუსეთი	-3273
▁იმისთვის	-3274
▁გაუმჯობეს	-3275
პს	-3276
▁ნახვა	-3277
მაგ	-3278
ვითი	-3279
▁უამრავი	-3280
▁განუ	-3281
გინ	-3282
ებლები	-3283
▁მთლიანად	-3284
▁არქ	-3285
▁კომუნიკ	-3286
რდა	-3287
▁ავრცელ	-3288
ers	-3289
▁თეთრი	-3290
▁სეს	-3291
ადგინა	-3292
ესის	-3293
▁ბურ	-3294
▁ტემპერ	-3295
ანაირი	-3296
ათის	-3297
გადა	-3298
▁ნან	-3299
კამ	-3300
ნეტ	-3301
▁ზრდის	-3302
▁ითხო	-3303
ზიის	-3304
▁მხარეს	-3305
▁კედ	-3306
მეორ	-3307
▁პიროვნ	-3308
▁საფუძველზე	-3309
▁მანქან	-3310
▁ბოლომდე	-3311
ლევა	-3312
▁მართლმ	-3313
ეის	-3314
▁დაიბ	-3315
▁ხელმძღვანე	-3316
▁კამპ	-3317
▁მთელ	-3318
▁სუბ	-3319
▁დანარჩ	-3320
ახავს	-3321
▁გო	-3322
ობამ	-3323
▁შეგვი	-3324
▁მდ	-3325
კვირ	-3326
სახური	-3327
▁სახლი	-3328
პინძ	-3329
ველად	-3330
▁მლ	-3331
▁მოითხო	-3332
▁უხ	-3333
▁ჯამ	-3334
ერმა	-3335
▁l	-3336
▁სასურ	-3337
▁უფასო	-3338
▁გუნდის	-3339
▁სექს	-3340
▁ატ	-3341
ურმა	-3342
ზარდა	-3343
რობენ	-3344
▁გაქვთ	-3345
▁შევი	-3346
▁შეიქმ	-3347
▁ვუ	-3348
▁ქრის	-3349
▁ესპან	-3350
▁გამოცხად	-3351
▁თავისუფლების	-3352
▁ქალბატ	-3353
▁კვლევის	-3354
▁შედგ	-3355
▁მოსამართ	-3356
,"	-3357
▁ივნ	-3358
▁მიაღ	-3359
▁ბანკის	-3360
▁გამოცდილება	-3361
▁მომავალი	-3362
▁სააგენტოს	-3363
▁მფლობ	-3364
ეტა	-3365
▁ხედა	-3366
მანათლებლო	-3367
ირავ	-3368
▁მიე	-3369
ევრო	-3370
od	-3371
▁შემი	-3372
დენს	-3373
ლონ	-3374
▁საკრებ	-3375
▁პრობლემები	-3376
▁ვარს	-3377
''	-3378
▁სურვილი	-3379
▁ადვი	-3380
▁ყოფილა	-3381
▁მარტივი	-3382
▁უკანასკ	-3383
▁მუშაობის	-3384
▁ყურ	-3385
ვედი	-3386
ავადმყოფ	-3387
▁მართლაც	-3388
ort	-3389
▁ექი	-3390
▁თუკი	-3391
▁მოჰყ	-3392
ირად	-3393
▁გაყიდ	-3394
ქით	-3395
▁გემ	-3396
▁ჯგუფი	-3397
▁ექნება	-3398
სს	-3399
▁ტელევი	-3400
ჯა	-3401
▁ახლოს	-3402
▁ობიექტ	-3403
▁დავა	-3404
▁მეორ	-3405
▁შეუძლებ	-3406
ჰა	-3407
▁ვახ	-3408
▁სამწუხაროდ	-3409
▁ადვოკ	-3410
▁შეუძლიათ	-3411
▁თავისუფალი	-3412
▁კოს	-3413
▁პროცედ	-3414
ელზე	-3415
▁თეატ	-3416
▁მოე	-3417
აციაში	-3418
გიური	-3419
▁ელექტრო	-3420
▁დარბ	-3421
▁ერთობ	-3422
▁სასტუმრო	-3423
▁იზ	-3424
▁ფარ	-3425
▁imed	-3426
▁მწერ	-3427
▁ტელეფ	-3428
▁მთავარ	-3429
▁ემოცი	-3430
▁თავზე	-3431
თავაზობთ	-3432
ჩუქ	-3433
▁ათასი	-3434
▁ხასიათ	-3435
ონება	-3436
▁მოდის	-3437
▁მათთვის	-3438
▁ახალგაზრდ	-3439
▁ორგანო	-3440
▁ცნობილია	-3441
ინიშ	-3442
▁რიცხ	-3443
▁წარს	-3444
▁პერსონ	-3445
▁ამომ	-3446
გრძნ	-3447
ღა	-3448
ლთა	-3449
▁ვაქცინ	-3450
▁მინისტრი	-3451
▁ზაფხ	-3452
▁მექანი	-3453
შემო	-3454
▁სიტყვა	-3455
ეთქ	-3456
შეს	-3457
▁აღდგ	-3458
▁მხარდაჭერ	-3459
▁ღირებულ	-3460
▁ხი	-3461
▁ამით	-3462
▁k	-3463
ენტებს	-3464
▁აღსანიშნ	-3465
ეთვე	-3466
პორტის	-3467
▁მიზანი	-3468
▁გარდაიც	-3469
ბლი	-3470
ცად	-3471
▁მეშვე	-3472
▁პირის	-3473
▁რუსული	-3474
▁მოღ	-3475
▁არავის	-3476
▁ევროპული	-3477
▁მოვა	-3478
▁რჩება	-3479
ბოს	-3480
▁გერმან	-3481
ტზე	-3482
▁კერძოდ	-3483
უდოდ	-3484
▁იმდენად	-3485
▁სიახლე	-3486
▁მეშვეობით	-3487
▁საავადმყოფ	-3488
▁გამოყენების	-3489
ატო	-3490
ტონ	-3491
▁უფროს	-3492
შის	-3493
წოდა	-3494
ეცნიერო	-3495
კარგ	-3496
▁საბოლოოდ	-3497
ak	-3498
▁სათა	-3499
▁აჩვენ	-3500
▁გადაწყვი	-3501
▁არაფ	-3502
▁მანძ	-3503
ზარე	-3504
▁გავაკეთ	-3505
▁მრ	-3506
▁მეზ	-3507
▁ბინა	-3508
▁ეხება	-3509
აბილ	-3510
თავი	-3511
▁პუნქ	-3512
▁ცდილობს	-3513
▁=	-3514
▁ურთიერთობა	-3515
ტაცია	-3516
▁ფული	-3517
ცევა	-3518
▁ხო	-3519
▁აგვისტო	-3520
▁ნივთიერ	-3521
▁პატრი	-3522
ტეტში	-3523
▁ბაქ	-3524
▁ორგანიზაციის	-3525
პოვ	-3526
▁სააგენტო	-3527
▁ბორ	-3528
▁საწ	-3529
ავშირ	-3530
ატურის	-3531
▁ზოგჯერ	-3532
ex	-3533
▁ნერ	-3534
▁მოხდეს	-3535
▁უპირატეს	-3536
▁ვარსკვლ	-3537
▁ეკონომიკის	-3538
ავას	-3539
პექტი	-3540
▁მონაწილეობა	-3541
ხმარება	-3542
ამოვნო	-3543
▁ოფიციალური	-3544
▁ზღვის	-3545
▁საშინ	-3546
ალმა	-3547
▁წვ	-3548
▁დედაქალაქ	-3549
ასვლ	-3550
▁იყი	-3551
▁ნაცვლად	-3552
ვეყ	-3553
გენ	-3554
ლეში	-3555
▁დაძ	-3556
ობიდან	-3557
აციები	-3558
ილების	-3559
▁ნარკო	-3560
▁No	-3561
▁ხალხს	-3562
▁The	-3563
ტიკული	-3564
ლისთვის	-3565
▁ლამაზი	-3566
▁ბაზარზე	-3567
▁ელექტრონ	-3568
▁დად	-3569
▁ვიქ	-3570
▁მოდ	-3571
▁ინდივიდ	-3572
ცემული	-3573
▁დანიშნ	-3574
▁ეკლესიის	-3575
▁ავრცელებს	-3576
▁გარეთ	-3577
▁ივნისი	-3578
▁აგრეთვე	-3579
▁გრ	-3580
უმენტი	-3581
მატი	-3582
წოდება	-3583
▁პარტნიორ	-3584
▁სამეცნიერო	-3585
ტარი	-3586
▁მენე	-3587
ტანა	-3588
უშევ	-3589
დიოდა	-3590
დროულად	-3591
დიდ	-3592
ახვი	-3593
▁ვნახ	-3594
▁იზრდება	-3595
▁ადგილობრივ	-3596
▁დაშ	-3597
▁ტესტი	-3598
ართო	-3599
▁იღებს	-3600
▁კავშირ	-3601
▁მოძრაობა	-3602
▁საუკუნის	-3603
ურების	-3604
ფოთ	-3605
▁მთავრობ	-3606
იდუმ	-3607
▁ბრა	-3608
▁მკაც	-3609
▁მიღების	-3610
▁პარლამენტში	-3611
ვნად	-3612
ამდვი	-3613
▁ეფექტი	-3614
▁ქვეყანას	-3615
▁გარდაიცვალა	-3616
▁პრეზიდენტმა	-3617
ვისა	-3618
▁ამჟამად	-3619
▁მინისტრმა	-3620
▁დონეზე	-3621
▁პოლიცი	-3622
ab	-3623
ჩნე	-3624
▁მქონდა	-3625
▁სხეულის	-3626
▁გოგო	-3627
og	-3628
ვერცხ	-3629
▁ოჯახი	-3630
▁შენარჩუნ	-3631
ამს	-3632
ტელ	-3633
▁ჩანა	-3634
▁წელიწ	-3635
▁სიმპტომ	-3636
▁შეიც	-3637
▁აგვისტოს	-3638
▁სახელობის	-3639
ნათ	-3640
▁სავარაუდოდ	-3641
ლავ	-3642
მხ	-3643
▁პატიმ	-3644
ანონ	-3645
▁ცოცხ	-3646
▁იწყება	-3647
ლაგ	-3648
▁იური	-3649
კურნა	-3650
რობდა	-3651
ირა	-3652
ობრივად	-3653
▁ბიძინა	-3654
ian	-3655
ნებს	-3656
▁გეგმა	-3657
▁განწყ	-3658
▁სამართალ	-3659
ლთან	-3660
▁ინტერვი	-3661
▁მანძილზე	-3662
ადიდებ	-3663
▁გამორ	-3664
▁კანონის	-3665
ხეში	-3666
▁კომისიის	-3667
▁აქტიურად	-3668
est	-3669
ნელად	-3670
▁აკადემი	-3671
▁h	-3672
ალხო	-3673
▁ფიზიკური	-3674
არცხ	-3675
დექს	-3676
▁მია	-3677
▁გამოვი	-3678
▁ვინაიდან	-3679
▁საზოგადოება	-3680
ვიანებით	-3681
▁კონკურს	-3682
▁at	-3683
▁ჩათ	-3684
არიბ	-3685
▁საპრო	-3686
▁შეიცავს	-3687
▁დასკ	-3688
▁ზოგადად	-3689
▁ოთხი	-3690
az	-3691
▁რეზ	-3692
▁გამართ	-3693
▁გამოყენებით	-3694
ფრინ	-3695
▁რკ	-3696
▁იშვი	-3697
▁მათგან	-3698
▁კულტურის	-3699
▁აზრი	-3700
▁ამბობენ	-3701
▁სწორად	-3702
▁მომსახურების	-3703
▁დეპუტატ	-3704
წლო	-3705
▁კაპი	-3706
▁მომავალში	-3707
იღო	-3708
▁ბრძან	-3709
ობისთვის	-3710
▁დაპირისპირ	-3711
▁Re	-3712
▁ქორ	-3713
ანსაღ	-3714
▁რეა	-3715
▁მუზე	-3716
უტერ	-3717
▁ინდ	-3718
▁St	-3719
▁ნიკა	-3720
▁საიდუმ	-3721
▁შემოსავ	-3722
▁პოლიტიკის	-3723
ადია	-3724
▁კახა	-3725
▁იმავე	-3726
▁შეხვედრის	-3727
▁მიგ	-3728
უქმ	-3729
ებასა	-3730
▁მოხდება	-3731
▁მნიშვნელოვან	-3732
▁გადაღ	-3733
▁ვხედა	-3734
▁შეგვიძლია	-3735
ბეჭ	-3736
კვლე	-3737
წევა	-3738
▁დაას	-3739
▁დაჭ	-3740
▁პედა	-3741
ებულად	-3742
▁მთავარია	-3743
▁ვაჭ	-3744
შვილს	-3745
კას	-3746
▁შაქ	-3747
▁ელემ	-3748
მში	-3749
▁მცდე	-3750
▁მკურნალობის	-3751
▁ლაპარაკ	-3752
ინათ	-3753
▁სერიოზული	-3754
▁ოცნება	-3755
▁ტრი	-3756
▁გთავაზობთ	-3757
ლილი	-3758
.,	-3759
პლო	-3760
▁ტრა	-3761
აზრის	-3762
ძულ	-3763
▁სავალ	-3764
▁პარტია	-3765
▁აქტივ	-3766
რობთ	-3767
ცნობი	-3768
▁უკავშირ	-3769
ანმა	-3770
▁გახლ	-3771
▁განათლება	-3772
ათს	-3773
▁კობ	-3774
▁არასამ	-3775
▁დავიწყ	-3776
ასწა	-3777
EO	-3778
▁წარმომადგენლები	-3779
▁ეროვნულ	-3780
▁საათზე	-3781
▁აუდი	-3782
▁გულისხმობს	-3783
▁ბიზნესის	-3784
▁სასარგებლო	-3785
წრ	-3786
გრე	-3787
ესტ	-3788
▁ავს	-3789
▁გაიზარდა	-3790
▁მონი	-3791
▁პროდუქტი	-3792
▁მხატ	-3793
▁ცენტრალური	-3794
▁საჭ	-3795
▁დამი	-3796
▁გურ	-3797
▁ვიღაც	-3798
ებულები	-3799
▁აქტიური	-3800
დებათ	-3801
ველს	-3802
▁ებ	-3803
▁ატარ	-3804
▁გავრცელებული	-3805
▁სწრაფი	-3806
▁შესაძლებელი	-3807
▁ინვესტი	-3808
▁გადაადგი	-3809
▁საოც	-3810
მაყოფი	-3811
ერები	-3812
▁ბიბლი	-3813
▁როდის	-3814
▁ნაკლები	-3815
▁უარი	-3816
▁წიგნი	-3817
▁დაეხმარ	-3818
▁განიხილ	-3819
▁ინსტიტუ	-3820
▁კანონმდებ	-3821
▁ელი	-3822
▁პუტ	-3823
ებსაც	-3824
▁უჯ	-3825
▁საბოლოო	-3826
▁შეეძ	-3827
▁მითით	-3828
▁გასა	-3829
▁მსხვერპ	-3830
ღარ	-3831
ჩილ	-3832
რესი	-3833
▁სამსახური	-3834
ст	-3835
▁ცენტრში	-3836
▁თვეში	-3837
▁მწვრთ	-3838
▁ტენ	-3839
▁შენს	-3840
??	-3841
▁თვალსაზრის	-3842
ცემს	-3843
▁მოწყობი	-3844
▁მოა	-3845
ობდნენ	-3846
ფორმაციო	-3847
▁იმე	-3848
▁ნაკლებად	-3849
დამც	-3850
▁საყვარელი	-3851
▁გათვალისწინებით	-3852
დილი	-3853
▁ძვირ	-3854
▁r	-3855
▁დაგეგმი	-3856
▁ზემოთ	-3857
▁შექმნილი	-3858
ცის	-3859
▁წი	-3860
▁მივიღ	-3861
ონდ	-3862
გული	-3863
▁მწვანე	-3864
▁მანამდე	-3865
▁სამზარე	-3866
▁კომიტეტის	-3867
ხმა	-3868
ავშვ	-3869
ზაციის	-3870
▁სიმართ	-3871
ate	-3872
▁სავაჭ	-3873
▁პოლიციის	-3874
ქვა	-3875
▁გვარ	-3876
▁მისივე	-3877
▁პროფეს	-3878
▁სააკაშვილის	-3879
▁საწინააღმდეგ	-3880
▁საგანგ	-3881
▁აღსანიშნავია	-3882
▁პალ	-3883
▁მასზე	-3884
▁მეზობ	-3885
▁თაობაზე	-3886
▁სავაჭრო	-3887
ოვა	-3888
▁ჯო	-3889
მედება	-3890
▁წევრები	-3891
▁დირექტორი	-3892
hi	-3893
▁გარშემო	-3894
რიან	-3895
--	-3896
▁რეაქ	-3897
ტორის	-3898
▁მინიმ	-3899
ბრუნ	-3900
▁მკვლ	-3901
▁შიგ	-3902
▁$	-3903
ერძნ	-3904
ub	-3905
▁უახლო	-3906
ჩხ	-3907
▁ღამ	-3908
ესთან	-3909
▁ტალ	-3910
▁საგანმანათლებლო	-3911
თო	-3912
▁იო	-3913
▁სანდო	-3914
ილდო	-3915
▁ზედა	-3916
▁არასამთავრობო	-3917
ესა	-3918
ზღვე	-3919
ტომაც	-3920
▁ენერ	-3921
▁ბინ	-3922
▁მკითხ	-3923
▁გაცილებით	-3924
კრი	-3925
▁ვაშ	-3926
▁ფილმი	-3927
▁ჩად	-3928
▁ასრულ	-3929
▁აპრილი	-3930
▁სამყაროს	-3931
▁საუბრის	-3932
ლებოდა	-3933
▁ტკივილი	-3934
▁ქალაქში	-3935
▁კახ	-3936
▁გააკეთა	-3937
▁თხ	-3938
▁იანვარი	-3939
წამ	-3940
▁თამარ	-3941
▁სკოლაში	-3942
▁სავს	-3943
▁ოქტომბერი	-3944
▁თვალსაზრისით	-3945
ლებთ	-3946
▁მუდმივად	-3947
ებებით	-3948
▁დაცვა	-3949
▁ამბავი	-3950
▁გათავისუფ	-3951
ითა	-3952
▁სექტემბერი	-3953
მირ	-3954
▁ინტერნეტ	-3955
მეტი	-3956
▁ადგილას	-3957
▁კვ	-3958
ვამს	-3959
ტაციის	-3960
▁მასში	-3961
▁ხელში	-3962
▁დაბალი	-3963
▁საინფორმაციო	-3964
▁მართლა	-3965
▁ანი	-3966
მაყოფილ	-3967
▁წითელი	-3968
▁პროცესის	-3969
ook	-3970
▁იაპ	-3971
▁მუხლის	-3972
▁კანის	-3973
ჩენ	-3974
▁სინამდვი	-3975
ტოლო	-3976
ბად	-3977
ლდა	-3978
ტაჟ	-3979
▁გაგი	-3980
▁პოტენ	-3981
▁შრომის	-3982
ღრ	-3983
▁ქალის	-3984
▁by	-3985
▁მშვი	-3986
ატა	-3987
დამიწ	-3988
ნიშვნელო	-3989
ist	-3990
▁დიპლო	-3991
▁დინ	-3992
▁კუთხით	-3993
▁გაიხს	-3994
▁სამეფ	-3995
ce	-3996
▁პლატ	-3997
ველები	-3998
▁ფესტი	-3999
▁სახალხო	-4000
▁ზრდა	-4001
▁იურიდი	-4002
▁განსხვავებული	-4003
▁დახმარება	-4004
▁დახმარების	-4005
▁ფართო	-4006
▁მამუკა	-4007
ine	-4008
▁სპეციალისტ	-4009
▁გს	-4010
▁პროფესიული	-4011
▁ზუგ	-4012
▁ვადა	-4013
▁არასოდეს	-4014
ვალს	-4015
ითვალისწინ	-4016
▁პროფესიონ	-4017
▁ალი	-4018
▁უპასუხ	-4019
▁რომელიმე	-4020
▁გამოფ	-4021
▁თავიანთი	-4022
ინდ	-4023
▁ბელ	-4024
▁საიტ	-4025
ri	-4026
▁ინფიცი	-4027
▁აღნიშნულ	-4028
▁to	-4029
▁ტრამ	-4030
▁მოგვიანებით	-4031
ევთ	-4032
წონს	-4033
▁მეხ	-4034
უბრუნ	-4035
▁რისკ	-4036
▁კავკასი	-4037
ფიქსირ	-4038
ინეთ	-4039
▁ვეღარ	-4040
დევნ	-4041
▁აუცილებელი	-4042
▁რეცე	-4043
▁უთხრა	-4044
▁სცენ	-4045
▁დირექტორ	-4046
ap	-4047
▁პოლიტიკა	-4048
▁შეუწყ	-4049
ახალ	-4050
▁ვარჯ	-4051
▁ნოემბერი	-4052
კუთ	-4053
▁დოლარი	-4054
ციებს	-4055
▁გლობ	-4056
▁გამონ	-4057
▁რედაქ	-4058
გონ	-4059
▁გამი	-4060
▁აძლევს	-4061
▁ქრისტიან	-4062
თაც	-4063
▁კონსულ	-4064
▁მკურნალობა	-4065
▁მდგომარეობის	-4066
▁ხმ	-4067
▁ხს	-4068
არგმ	-4069
▁საწყ	-4070
რატ	-4071
ავენ	-4072
ისაგან	-4073
▁უდიდესი	-4074
▁აც	-4075
ალოდ	-4076
▁მოსახლეობას	-4077
ციულ	-4078
ისგან	-4079
▁პერიოდი	-4080
პირო	-4081
▁უწყობს	-4082
▁ანგარიში	-4083
▁დასაწყის	-4084
შო	-4085
▁კორპ	-4086
ეშმარი	-4087
ოლს	-4088
▁ნე	-4089
▁მიიჩნ	-4090
ლესია	-4091
▁სადა	-4092
▁დედამიწ	-4093
▁მონიტორ	-4094
▁ავად	-4095
▁ფონზე	-4096
▁რეჟის	-4097
▁ღვინის	-4098
▁ზამთ	-4099
▁მასშტაბით	-4100
დღ	-4101
▁ინტეგ	-4102
▁დაავადების	-4103
ლებისთვის	-4104
ჭურ	-4105
▁ბრძოლის	-4106
▁კონფერენ	-4107
▁წარმატებული	-4108
წრო	-4109
▁გთხო	-4110
▁კომპიუტერ	-4111
რალ	-4112
▁ივლისი	-4113
▁გამოძიება	-4114
▁საფეხ	-4115
▁დონის	-4116
▁შესწავ	-4117
ყოფა	-4118
▁სენ	-4119
▁გახდება	-4120
▁ბედნიერ	-4121
ინოთ	-4122
▁უწოდ	-4123
▁ნათქვამია	-4124
გები	-4125
ფრთხ	-4126
ხა	-4127
▁მოტი	-4128
ნად	-4129
ევას	-4130
▁საკვები	-4131
▁მოადგილე	-4132
▁კენ	-4133
რაზ	-4134
▁მიიღებს	-4135
▁განვითარება	-4136
ზეა	-4137
▁ჯი	-4138
▁დარე	-4139
ეტყ	-4140
▁აბსოლ	-4141
▁მდებარეობს	-4142
ამზად	-4143
წყვეტ	-4144
აშვილს	-4145
▁გარკვეულ	-4146
▁უფლებების	-4147
ყარ	-4148
▁მოღვა	-4149
მლის	-4150
▁ორგანიზაცია	-4151
უზი	-4152
▁ჩამოს	-4153
▁მიკრო	-4154
▁ოქროს	-4155
▁შედეგები	-4156
▁არჩევნები	-4157
▁მომი	-4158
▁რომლებ	-4159
▁შემც	-4160
▁ქვეყნების	-4161
▁მხარდაჭერა	-4162
th	-4163
აზის	-4164
ლებენ	-4165
▁კავშირის	-4166
▁მართალია	-4167
▁ნაგ	-4168
არბ	-4169
ურები	-4170
▁ქიმი	-4171
ებოდნენ	-4172
▁საღამოს	-4173
ლოც	-4174
▁უნიკ	-4175
▁მთავრობა	-4176
არულ	-4177
▁მეოთ	-4178
▁კომფორ	-4179
▁საკონს	-4180
დვილი	-4181
▁არგ	-4182
▁აზერბაიჯ	-4183
▁კომენტარი	-4184
▁მაისს	-4185
▁ნიადა	-4186
▁ყოფილ	-4187
რებულია	-4188
▁შემუშავ	-4189
▁ბავშვები	-4190
▁კად	-4191
▁გადარჩ	-4192
▁გასული	-4193
▁საქმიანობის	-4194
ოვი	-4195
▁ზრუნ	-4196
▁მხარს	-4197
▁ჯამში	-4198
▁დასრულდა	-4199
ინტერესებს	-4200
▁მართლმადიდებ	-4201
if	-4202
▁მივა	-4203
▁წერტი	-4204
▁*	-4205
▁ოდენ	-4206
▁სიმბ	-4207
▁უფროსი	-4208
▁ვიტამ	-4209
▁დარწმუნებული	-4210
ber	-4211
▁ზოგიერთ	-4212
▁სიცოცხლის	-4213
იური	-4214
ხვდება	-4215
▁დეპარტამენტის	-4216
▁დისტ	-4217
▁აღმოაჩ	-4218
▁ჩვენთვის	-4219
▁გაიმართება	-4220
ebi	-4221
▁გორ	-4222
▁დედ	-4223
▁გარანტი	-4224
▁ხაზი	-4225
▁კიდეც	-4226
▁ეკლესია	-4227
▁მეფ	-4228
▁სამკურნა	-4229
ემბრის	-4230
▁საათის	-4231
▁მდგომარეობაში	-4232
▁საზღვარ	-4233
▁ანთ	-4234
ჯერობით	-4235
▁დამზად	-4236
▁ცნობით	-4237
▁+	-4238
▁უცნა	-4239
▁გაზე	-4240
კვიდრე	-4241
▁ლარის	-4242
▁ჭეშმარი	-4243
▁ამოც	-4244
▁ინსტრ	-4245
▁განცხადებაში	-4246
კოპ	-4247
▁ამიტომაც	-4248
თე	-4249
ტმა	-4250
არდი	-4251
აზღა	-4252
ილები	-4253
▁ისრა	-4254
▁საათი	-4255
▁შემიძლია	-4256
▁ამომრ	-4257
▁ნახევარ	-4258
▁ტაბ	-4259
ესო	-4260
▁კოდექს	-4261
▁პირიქით	-4262
ავეს	-4263
ნიერი	-4264
▁წელია	-4265
ord	-4266
ვში	-4267
▁ვთქვათ	-4268
▁აღმოსავლეთ	-4269
▁გადაწყვეტილებ	-4270
▁ჰყ	-4271
ტრანს	-4272
▁მგზავ	-4273
▁რეალური	-4274
უსით	-4275
ვნილი	-4276
▁მშვენი	-4277
▁გამოვლი	-4278
▁დაარ	-4279
ეა	-4280
ანდრე	-4281
▁რეალურად	-4282
▁გამოქვეყნ	-4283
▁იმისათვის	-4284
მატება	-4285
▁საქმეზე	-4286
▁ენა	-4287
▁აქამდე	-4288
▁კვირაში	-4289
▁საკრებულოს	-4290
▁პოლო	-4291
▁წიგნ	-4292
▁წელიწად	-4293
▁ოპოზიციის	-4294
ტაც	-4295
▁მენეჯ	-4296
▁ამა	-4297
რაცია	-4298
▁ბორო	-4299
▁შეტყობ	-4300
▁ტექნიკური	-4301
up	-4302
ანე	-4303
ველების	-4304
▁მოკლედ	-4305
▁გამართულ	-4306
▁იმპ	-4307
▁აერო	-4308
▁ტრენ	-4309
▁ჰქონდეს	-4310
▁მოქმედებ	-4311
▁თებერვალი	-4312
▁როლი	-4313
▁სტაბილ	-4314
▁ისაუბრა	-4315
▁სუფთა	-4316
▁აკრძალ	-4317
კში	-4318
არემ	-4319
ძიებო	-4320
▁სამე	-4321
ct	-4322
დანაშა	-4323
▁ჩატ	-4324
▁იქნებ	-4325
▁მარცხ	-4326
ავშვო	-4327
დს	-4328
კულ	-4329
არატი	-4330
▁გახდეს	-4331
▁შეცდომ	-4332
▁ადვილად	-4333
▁რეაბილი	-4334
▁ხელისუფლებას	-4335
▁п	-4336
▁მაქსიმალურად	-4337
▁უზრუნველყოფს	-4338
დღე	-4339
▁ჩხ	-4340
▁მორი	-4341
▁საიდუმლო	-4342
▁რესპუბლიკის	-4343
▁სე	-4344
▁ხარისხი	-4345
ებითა	-4346
ზაცია	-4347
▁გაძლიერ	-4348
▁მისამართ	-4349
▁↑	-4350
▁შთა	-4351
▁ინტერნე	-4352
▁ცვლილებები	-4353
▁ღარიბ	-4354
ჩნდება	-4355
იკითხ	-4356
▁გზის	-4357
▁წევრ	-4358
▁ითვალისწინ	-4359
ოვან	-4360
▁ხის	-4361
▁მსუბ	-4362
▁რესტორ	-4363
▁გააჩნია	-4364
▁სამუშაოები	-4365
▁პაკ	-4366
▁მედია	-4367
▁გეგმ	-4368
▁დადასტურ	-4369
▁პროცენტი	-4370
▁ყოფილიყო	-4371
მეთ	-4372
ძიმ	-4373
ტირება	-4374
▁სტატის	-4375
▁ნამდვილი	-4376
▁მემკვიდრე	-4377
▁რევ	-4378
▁კავშირი	-4379
▁თანამშრომლობის	-4380
▁საიდან	-4381
▁დგას	-4382
▁უკეთესი	-4383
▁არანაირი	-4384
▁ჰგ	-4385
▁ოლიმ	-4386
ev	-4387
იფ	-4388
▁ურთიერთობის	-4389
▁სხდომაზე	-4390
სოვს	-4391
▁მიდის	-4392
▁ეფექტური	-4393
▁აშენ	-4394
▁აირჩი	-4395
▁დავალ	-4396
▁პარალ	-4397
▁ქალაქი	-4398
▁ექვს	-4399
▁რეაგ	-4400
!"	-4401
ни	-4402
ორდინ	-4403
▁აბსოლუტ	-4404
▁პირად	-4405
ახსენებთ	-4406
▁დიაგ	-4407
▁მარჯ	-4408
▁პლან	-4409
▁საბავშვო	-4410
ნიდან	-4411
ცერ	-4412
რეზი	-4413
▁შეურ	-4414
ებელს	-4415
▁გითხ	-4416
ალისტი	-4417
▁ღვთის	-4418
pr	-4419
▁ვალდებულ	-4420
ვებში	-4421
ლითაც	-4422
▁იუსტი	-4423
▁სააკაშვილი	-4424
ჩის	-4425
ედია	-4426
სრულ	-4427
ქართ	-4428
▁დაქ	-4429
▁მოგი	-4430
▁თანხა	-4431
▁აღნიშნავს	-4432
▁ზურაბ	-4433
▁თო	-4434
ილად	-4435
▁მიუთ	-4436
▁იხ	-4437
დგომა	-4438
▁ასაკში	-4439
▁პრიორი	-4440
▁საგანგებო	-4441
▁დელ	-4442
უსტრი	-4443
▁ცალკე	-4444
▁დამატებით	-4445
▁შეადგენს	-4446
▁თვითმმართვე	-4447
▁წარმოდგენილი	-4448
▁სამშობ	-4449
ვიოს	-4450
ეთიდან	-4451
▁ელექტრონული	-4452
▁ოფის	-4453
▁მედიკამ	-4454
▁მეურნეობის	-4455
▁გრძელდება	-4456
▁დეკემბერი	-4457
ავალ	-4458
▁ითქ	-4459
▁აღჭურ	-4460
▁საწარმო	-4461
▁ქართველ	-4462
▁წარმოების	-4463
▁ციფ	-4464
დაპირი	-4465
▁კვერცხ	-4466
ახვა	-4467
ველო	-4468
მუშა	-4469
რალი	-4470
▁გსურთ	-4471
▁მოიპო	-4472
ly	-4473
▁იცით	-4474
▁გავიდა	-4475
რათ	-4476
▁ტარ	-4477
▁ჯიშ	-4478
მაგრამ	-4479
▁მყოფი	-4480
▁მოთამაშ	-4481
▁მზის	-4482
▁შევა	-4483
▁მოლოდ	-4484
▁в	-4485
გოგ	-4486
▁გრი	-4487
ატრიარქ	-4488
▁მიიღოს	-4489
▁იყიდება	-4490
ვართ	-4491
▁მენ	-4492
▁შუა	-4493
▁კობახი	-4494
გიის	-4495
▁პროდუქტის	-4496
▁სინამდვილეში	-4497
▁ბიჭი	-4498
▁ბევრად	-4499
ენსი	-4500
▁გონ	-4501
ანსაც	-4502
▁ვინმე	-4503
▁ტან	-4504
▁სპექტ	-4505
ებებში	-4506
▁ისტორიული	-4507
პორტო	-4508
▁თვალები	-4509
▁ჩრდილოეთ	-4510
▁იუსტიციის	-4511
ციურ	-4512
▁რუსეთ	-4513
▁თავდას	-4514
▁სიხ	-4515
▁ხორ	-4516
▁ჰყავს	-4517
▁შესანიშნავი	-4518
▁გამარჯვ	-4519
ალებს	-4520
▁მანქანა	-4521
გვარად	-4522
▁ოთახში	-4523
▁საზოგადოებას	-4524
PN	-4525
▁აქცია	-4526
▁ანა	-4527
▁დამთავ	-4528
▁გაკეთება	-4529
▁Y	-4530
▁შეამ	-4531
▁ბავშვს	-4532
▁გაფორმ	-4533
▁გამოიწვია	-4534
▁ხელმძღვანელი	-4535
ობაა	-4536
▁ბილ	-4537
ვნება	-4538
პირობ	-4539
▁მდგრ	-4540
▁ასაკის	-4541
▁·	-4542
ვირი	-4543
▁მობილ	-4544
▁უშუ	-4545
▁შსს	-4546
▁მხარდამ	-4547
▁შეუძლებელია	-4548
აზა	-4549
▁ენის	-4550
▁უშ	-4551
▁დამარ	-4552
რეთ	-4553
ენტში	-4554
▁გვერდი	-4555
▁გავლენა	-4556
ლობისა	-4557
▁შედის	-4558
ადაა	-4559
ონტრო	-4560
▁აჭარის	-4561
▁დაუშ	-4562
▁თეორი	-4563
▁კვალი	-4564
▁რამაც	-4565
▁სასწავლებ	-4566
ze	-4567
▁რეპ	-4568
აკვეთ	-4569
▁აღიარ	-4570
▁ქსელში	-4571
▁პერსპექტი	-4572
ქის	-4573
▁იპო	-4574
დევნო	-4575
▁https	-4576
▁მოღვაწე	-4577
▁შეხვედრაზე	-4578
▁ხელოვნების	-4579
▁ქმნის	-4580
▁იძლევა	-4581
ნატი	-4582
▁დაემ	-4583
▁შანსი	-4584
▁კანონპრო	-4585
▁იმო	-4586
▁ტკ	-4587
▁მიყვარს	-4588
▁ნაწილის	-4589
▁კონტროლის	-4590
▁მარგ	-4591
▁მეფე	-4592
იტანა	-4593
▁ფუნქციონ	-4594
▁Ge	-4595
▁ზონ	-4596
ტანილი	-4597
▁კრიზის	-4598
▁გვერდზე	-4599
▁დემოკრატიული	-4600
ამეტ	-4601
ჟორი	-4602
შფოთ	-4603
ერება	-4604
▁ვად	-4605
▁იშვიათ	-4606
▁სასწრაფ	-4607
▁რომელთაც	-4608
ჩვე	-4609
აგი	-4610
▁პროტეს	-4611
ანონმდებ	-4612
▁მიიჩნევს	-4613
▁სამართლებ	-4614
▁სტუდენტ	-4615
▁გენერალური	-4616
▁არაერთ	-4617
▁სალომე	-4618
▁თითოეულ	-4619
▁მინიმუმ	-4620
▁ჩართული	-4621
▁აფხაზეთის	-4622
წმინ	-4623
▁მყოფ	-4624
▁გამოვლ	-4625
▁კამპანი	-4626
▁სპორტის	-4627
▁ალექსანდრე	-4628
▁კათ	-4629
▁მიუ	-4630
▁სანა	-4631
▁ფანჯ	-4632
▁ახდენს	-4633
▁შექმნის	-4634
▁ჰქონდათ	-4635
ყვანეს	-4636
სახურება	-4637
▁სიამოვნ	-4638
▁მომდევნო	-4639
უნის	-4640
▁გრან	-4641
▁გამოვ	-4642
▁ჩვეულებრივ	-4643
აშია	-4644
ტატი	-4645
▁ფილმის	-4646
▁th	-4647
▁ქვეყნებში	-4648
ალმ	-4649
კოჰ	-4650
▁პეტ	-4651
ზარალ	-4652
ლობითი	-4653
▁დატოვა	-4654
▁გარდაცვალ	-4655
▁დიახ	-4656
▁ხელის	-4657
▁ვით	-4658
▁ფირ	-4659
დაბ	-4660
▁უკეთეს	-4661
▁i	-4662
გარე	-4663
▁განც	-4664
ებელმა	-4665
▁ივნისს	-4666
▁შეიქმნა	-4667
▁ოკუ	-4668
▁დაეს	-4669
▁ბათუმის	-4670
▁ნიკო	-4671
▁გაყ	-4672
▁ვიცით	-4673
▁სისხლ	-4674
▁მომავალ	-4675
ბინ	-4676
▁ულ	-4677
წევთ	-4678
ულება	-4679
▁მედიის	-4680
▁სპორტული	-4681
ვავე	-4682
▁ძმა	-4683
▁შეიარაღ	-4684
▁ხორციელ	-4685
▁ძეგ	-4686
ანონმდებლო	-4687
ნაციონალური	-4688
▁დაგეხმარ	-4689
▁ხელისუფლებ	-4690
▁უჯრე	-4691
▁სათან	-4692
▁აფხაზეთ	-4693
წეს	-4694
ტონი	-4695
▁დარჩა	-4696
▁გრძნობ	-4697
▁ოკუპირ	-4698
▁ნამუშევ	-4699
▁დააკავეს	-4700
▁წარმოადგენ	-4701
▁მოუწოდ	-4702
▁მჟ	-4703
▁დასახელ	-4704
▁მოქმედებს	-4705
▁ფილი	-4706
▁გაფართო	-4707
▁თქვენთვის	-4708
▁რაოდენობით	-4709
ფა	-4710
▁ღრ	-4711
ხანს	-4712
▁მწარმო	-4713
ჟის	-4714
ებოდი	-4715
▁საწინააღმდეგო	-4716
ვეთი	-4717
▁დამუშავ	-4718
მიდა	-4719
▁არადა	-4720
ტერნატი	-4721
▁მოულოდ	-4722
▁ბავშვთა	-4723
▁სიტყვები	-4724
▁ჩვეულებრივი	-4725
▁ღი	-4726
▁კვლევა	-4727
▁აზერბაიჯან	-4728
▁დასაწყისში	-4729
▁ერთმანეთის	-4730
▁მარტს	-4731
▁ევროპაში	-4732
▁საკანონმდებლო	-4733
იკური	-4734
▁ამაღ	-4735
▁ქალთა	-4736
▁წუთის	-4737
პარატის	-4738
▁რეფორმ	-4739
ატარა	-4740
▁ვლად	-4741
▁მოსალოდ	-4742
▁რომლითაც	-4743
ილს	-4744
▁II	-4745
ინების	-4746
▁ზრდას	-4747
▁Post	-4748
▁ლიდერი	-4749
ore	-4750
▁გასულ	-4751
▁მმართველი	-4752
▁ნაწილში	-4753
▁ტომ	-4754
▁მოახერხ	-4755
▁მარტივად	-4756
▁ოქტომბერს	-4757
▁გამოგ	-4758
▁შეხვდა	-4759
▁უფლებამოს	-4760
ეგმ	-4761
▁ეზ	-4762
ვნებ	-4763
იმის	-4764
▁კულტურული	-4765
▁ქონ	-4766
▁წაკ	-4767
▁პრეზ	-4768
▁ჯანსაღ	-4769
▁შინაარს	-4770
▁ჩვენთან	-4771
на	-4772
▁ტვ	-4773
რებში	-4774
იტან	-4775
▁სექ	-4776
▁წარდგ	-4777
qu	-4778
ლებისა	-4779
▁ექსპერტი	-4780
▁ისტორიაში	-4781
▁ევროკავშირ	-4782
ოტი	-4783
▁სიმაღ	-4784
▁ხელშეწყ	-4785
▁პირდაპირი	-4786
სია	-4787
▁Sp	-4788
გრეს	-4789
ოსის	-4790
▁ჯორ	-4791
▁სამართალდამც	-4792
▁მნიშვნელოვნად	-4793
VID	-4794
▁მიზანია	-4795
ეებს	-4796
▁სალ	-4797
▁შეფ	-4798
▁ნაბიჯი	-4799
უდო	-4800
▁ვიზ	-4801
▁დაზარალ	-4802
▁კომპლექს	-4803
ტად	-4804
▁საგამო	-4805
მთავ	-4806
ვისას	-4807
▁გამორიცხ	-4808
▁ძალადობის	-4809
▁ძველ	-4810
▁გზაზე	-4811
ბურთი	-4812
ავლო	-4813
▁გავა	-4814
▁ქალს	-4815
ალე	-4816
ვილ	-4817
▁გირ	-4818
▁მავ	-4819
▁ნავთ	-4820
▁თამაშის	-4821
▁ყურადღებას	-4822
▁ჯერჯერობით	-4823
ов	-4824
ურობ	-4825
▁ბენ	-4826
▁ძალების	-4827
▁ფონდის	-4828
▁წარმოი	-4829
ასრულა	-4830
ტორები	-4831
▁მიუთით	-4832
ვილს	-4833
საუბ	-4834
▁ხედ	-4835
▁თანდა	-4836
▁ნოემბერს	-4837
▁უკავშირდება	-4838
ენით	-4839
▁ყიდ	-4840
▁წყა	-4841
ცხადა	-4842
▁გამჭ	-4843
▁პრევენ	-4844
▁ქვემოთ	-4845
▁ვებგვერ	-4846
ფასი	-4847
▁რომლებმაც	-4848
ტენსი	-4849
▁მტკი	-4850
▁ხვალ	-4851
▁პოზიცია	-4852
ჩემ	-4853
▁ნიუ	-4854
▁ჯავ	-4855
ულებს	-4856
▁შეგახსენებთ	-4857
ასის	-4858
ციით	-4859
▁რუსეთში	-4860
▁განყოფილ	-4861
▁ცხოვრობს	-4862
▁მონაცემებით	-4863
▁პარალელ	-4864
▁გალ	-4865
▁გაიგ	-4866
ემბერში	-4867
▁ოჯახში	-4868
▁ოდნ	-4869
ნელია	-4870
▁კომპონ	-4871
▁განვითარებას	-4872
▁ნაშ	-4873
▁დისტან	-4874
▁ჩატარებული	-4875
▁მონაწილეობას	-4876
ყრდნ	-4877
▁სემ	-4878
▁შაბ	-4879
▁გადაჭ	-4880
▁თვალი	-4881
ილება	-4882
▁ყვავ	-4883
▁კოლექ	-4884
▁გამოთქ	-4885
ind	-4886
ერად	-4887
ელებმა	-4888
▁ახლო	-4889
▁მოქმედი	-4890
▁ჩათვლით	-4891
▁რევოლ	-4892
▁ქუჩაზე	-4893
▁პირადად	-4894
▁მამაკაცი	-4895
არად	-4896
მეტყ	-4897
▁გამოიყურ	-4898
გს	-4899
ლური	-4900
▁გადაცემა	-4901
▁ტეს	-4902
▁ჩატარდა	-4903
▁ინდუსტრი	-4904
▁სასამართლომ	-4905
გში	-4906
▁ჰო	-4907
▁გადაწყვეტილების	-4908
სნა	-4909
შრო	-4910
▁კარგია	-4911
ard	-4912
▁შპს	-4913
▁უყურ	-4914
▁ხუთი	-4915
▁ავტობ	-4916
▁კვების	-4917
▁ყველამ	-4918
▁პანდემიის	-4919
ჯერა	-4920
▁შავ	-4921
ელთან	-4922
▁გამოირ	-4923
▁სათამაშ	-4924
▁ქუთაისის	-4925
▁ტურიზმის	-4926
▁მრავალფერო	-4927
ра	-4928
უსს	-4929
ფუძნ	-4930
▁მეთოდი	-4931
ანად	-4932
ახლა	-4933
▁გოლი	-4934
▁გამოსახ	-4935
▁ნახევარი	-4936
▁დღევანდელი	-4937
▁მოზარ	-4938
▁შეთავაზ	-4939
▁გამოიყენოთ	-4940
▁პოპულარული	-4941
li	-4942
ბაქ	-4943
თქმ	-4944
▁კვირ	-4945
▁რადიო	-4946
▁კაკ	-4947
inews	-4948
▁შეეს	-4949
▁შეხედ	-4950
▁შეურაცხ	-4951
კვიდ	-4952
▁ფრანგ	-4953
▁არაერთი	-4954
▁რომელზეც	-4955
▁უმნიშვნელო	-4956
▁ბოლ	-4957
▁შემე	-4958
აციული	-4959
▁დახურ	-4960
▁რეკლამ	-4961
▁შექმნი	-4962
▁დასრულების	-4963
▁ფერმ	-4964
▁წუთი	-4965
▁მოგვარ	-4966
ჯავ	-4967
ერთა	-4968
▁დაძაბ	-4969
▁მდინარე	-4970
▁ყველაფრის	-4971
▁სასიამოვნო	-4972
▁ფულის	-4973
▁აკეთებს	-4974
▁მიმართა	-4975
▁მოითხოვს	-4976
▁განცხადებას	-4977
▁პერ	-4978
▁წარუ	-4979
▁ალკოჰ	-4980
▁მკვეთ	-4981
საჯ	-4982
▁ჰორ	-4983
▁ნიმ	-4984
▁ტყუ	-4985
▁დაიც	-4986
ველებს	-4987
ვისთვის	-4988
ალბ	-4989
ვმა	-4990
▁გრიგ	-4991
▁ვინმეს	-4992
▁საქმეს	-4993
▁ზედაპირ	-4994
▁ინტენსი	-4995
უჟ	-4996
▁დაინ	-4997
▁იძულ	-4998
▁სახელით	-4999
▁ბე	-5000
▁ილია	-5001
ენილია	-5002
▁საჩუქ	-5003
▁დამოუკიდებელი	-5004
გისტ	-5005
▁ქონების	-5006
▁სამსახურში	-5007
▁განაგრძ	-5008
▁გერმანიის	-5009
ახება	-5010
▁ტანსაც	-5011
▁წავიდა	-5012
▁დამტკიც	-5013
▁ისტორიის	-5014
▁მაჩვენებელი	-5015
▁საშ	-5016
ყველა	-5017
▁ზომის	-5018
წირ	-5019
მანი	-5020
▁მაც	-5021
▁რაოდენობის	-5022
თავის	-5023
▁დილით	-5024
▁ხანდა	-5025
▁თავდაპირ	-5026
▁Ch	-5027
▁კუჭ	-5028
▁კონცენტ	-5029
ტას	-5030
ძარ	-5031
ჩემი	-5032
ტიკურ	-5033
სხ	-5034
▁ოლ	-5035
ვარდ	-5036
▁დღესასწა	-5037
▁აცხადებენ	-5038
Ge	-5039
რილ	-5040
▁ბავშვებს	-5041
▁შემოქმედ	-5042
▁დახმარებით	-5043
▁მოსახლეობა	-5044
▁მოპო	-5045
▁შემა	-5046
▁დაამატ	-5047
▁ბათუმში	-5048
▁ღირებულება	-5049
▁ჯარის	-5050
▁ადგილს	-5051
▁მეგობარი	-5052
.[	-5053
წლი	-5054
▁არაბ	-5055
ებულის	-5056
▁ზურაბი	-5057
▁imedinews	-5058
▁Mar	-5059
▁კერ	-5060
▁ტაქ	-5061
▁დამნ	-5062
▁ვირუს	-5063
▁მოთხოვნა	-5064
მენი	-5065
▁ფუნ	-5066
▁re	-5067
ვერი	-5068
▁ღვინო	-5069
▁მგონია	-5070
▁მასპინძ	-5071
▁დამოკიდებული	-5072
ep	-5073
ღუპ	-5074
ანდი	-5075
▁დემ	-5076
▁მღვ	-5077
ებულა	-5078
ოდენი	-5079
ჯერად	-5080
▁თერა	-5081
▁აქციის	-5082
▁როგორიც	-5083
გარეთ	-5084
▁წარმატებით	-5085
▁პოლ	-5086
▁რით	-5087
▁ფურ	-5088
▁რეიტ	-5089
▁სიცოცხლე	-5090
▁ოღ	-5091
ლაკ	-5092
▁გემო	-5093
▁ექიმი	-5094
▁სამომ	-5095
▁ალტერნატი	-5096
▁GEO	-5097
▁რჩევ	-5098
▁ფრან	-5099
▁მოცემ	-5100
▁მაჟორი	-5101
▁პათ	-5102
▁ვიცე	-5103
▁ოდნავ	-5104
ოთეკ	-5105
▁გვინდა	-5106
▁ითვალისწინებს	-5107
▁გადაწყვეტილებას	-5108
▁ნდ	-5109
▁ჰარ	-5110
ებელთა	-5111
ოქ	-5112
▁რწმ	-5113
▁კონტროლი	-5114
▁с	-5115
აცვ	-5116
▁ლუ	-5117
გამო	-5118
ome	-5119
▁ნაწილს	-5120
▁წიგნის	-5121
▁შეერთებული	-5122
▁თავმჯდომარის	-5123
▁იტყ	-5124
ლობდა	-5125
▁წარმომადგენელი	-5126
ნდ	-5127
ზირ	-5128
▁გაეროს	-5129
▁საქმეში	-5130
▁ივანიშვილის	-5131
ჩნია	-5132
▁დასვენ	-5133
▁მუშ	-5134
ებებზე	-5135
▁ოკ	-5136
▁ნეტ	-5137
აძეს	-5138
▁ტერმ	-5139
▁მეოთხე	-5140
ბე	-5141
▁საიტი	-5142
▁გამოიწვიოს	-5143
▁სასჯ	-5144
▁აპირებს	-5145
კაცი	-5146
▁გაშ	-5147
დენტო	-5148
▁თმის	-5149
▁არქიტ	-5150
▁პრობლემების	-5151
▁&	-5152
ack	-5153
კული	-5154
▁მიხ	-5155
▁მძღ	-5156
▁თანაც	-5157
▁წესით	-5158
ონმა	-5159
▁ვარიანტი	-5160
.)	-5161
▁PM	-5162
ავიწყ	-5163
უხო	-5164
▁რეგიონის	-5165
▁=>	-5166
▁ქმედებ	-5167
▁დასავლეთ	-5168
უბერ	-5169
▁გატარ	-5170
▁სატელ	-5171
ინარჩუნ	-5172
▁სიტუაცია	-5173
ჩეს	-5174
▁CO	-5175
▁ასპ	-5176
ტულად	-5177
▁თემაზე	-5178
ტეხ	-5179
▁სანქ	-5180
▁ლიგის	-5181
▁An	-5182
▁სმ	-5183
▁უკანონო	-5184
▁მონაცემები	-5185
ასწო	-5186
▁სამზარეულო	-5187
ობებს	-5188
▁მოვალე	-5189
▁გამოვიდა	-5190
▁კონკრეტულ	-5191
▁მოსამართლე	-5192
▁პოლონ	-5193
ძებ	-5194
▁ჯე	-5195
▁ვაჟ	-5196
▁რისი	-5197
ენებლო	-5198
▁ვლადიმ	-5199
▁შევიდა	-5200
▁გაც	-5201
ყრელი	-5202
▁ჩაის	-5203
▁ლაბორ	-5204
▁ანაზღა	-5205
▁წარმოშ	-5206
▁?	-5207
ნებ	-5208
ზიარ	-5209
▁მახასიათ	-5210
▁არჩევნებში	-5211
ადას	-5212
ახალი	-5213
▁ბევრს	-5214
▁ენაზე	-5215
▁ნატოს	-5216
▁ივლისს	-5217
▁გადავი	-5218
დებს	-5219
მიტრი	-5220
ლებლად	-5221
შაბათი	-5222
▁გამოდის	-5223
▁საკითხზე	-5224
▁უნიკალური	-5225
▁მლნ	-5226
▁ელის	-5227
▁ოთახი	-5228
our	-5229
▁ცერ	-5230
▁პორტ	-5231
▁ტურნი	-5232
",-	-5233
ევდა	-5234
▁Com	-5235
▁აღვ	-5236
▁მიშ	-5237
▁დამე	-5238
▁სურათ	-5239
▁გთხოვთ	-5240
▁სახელმძღვან	-5241
ტიური	-5242
▁ბოსტ	-5243
▁მონას	-5244
ოლოგიის	-5245
▁დაკავებული	-5246
წლიანი	-5247
▁კომერ	-5248
ადოს	-5249
▁პას	-5250
ავები	-5251
▁პარი	-5252
▁აღმოჩ	-5253
▁ინოვა	-5254
▁შემოწმ	-5255
ვებზე	-5256
არსელო	-5257
▁მიმდებარე	-5258
▁სს	-5259
post	-5260
▁დეკემბერს	-5261
▁უკანასკნელი	-5262
▁პრობლემის	-5263
კურო	-5264
▁რთულია	-5265
▁ახორციელ	-5266
▁დანარჩენი	-5267
ავდნენ	-5268
▁კრიტიკ	-5269
▁პრეზენტ	-5270
▁უახლოეს	-5271
ხმე	-5272
▁უბედ	-5273
▁რეჟიმში	-5274
▁ღრმა	-5275
თბილის	-5276
▁მათგანი	-5277
ემია	-5278
▁საქონ	-5279
▁სიტყვით	-5280
▁მომე	-5281
▁მისცა	-5282
▁ენერგე	-5283
▁თურქეთის	-5284
▁მომსახურება	-5285
დში	-5286
▁გია	-5287
▁კინო	-5288
▁საცხოვრებელი	-5289
▁გაუმ	-5290
▁დიალო	-5291
▁რუსთა	-5292
▁მოხმარ	-5293
▁ამისთვის	-5294
ვენა	-5295
▁გასაგ	-5296
▁სიჩქ	-5297
▁სტუდი	-5298
▁სუნთქ	-5299
უთხ	-5300
▁აუ	-5301
▁აპრილს	-5302
ვადი	-5303
ლდება	-5304
▁გოგონა	-5305
▁მარკეტ	-5306
▁სექტორ	-5307
▁წლები	-5308
▁პროკურატურ	-5309
აჟ	-5310
რინ	-5311
ვიდან	-5312
ყოფის	-5313
▁დავე	-5314
▁დაცული	-5315
▁ღმერთი	-5316
▁დაავადება	-5317
ოდით	-5318
გების	-5319
▁აპლიკ	-5320
▁ომი	-5321
▁გაუგ	-5322
▁გამოაქ	-5323
▁დაფიქსირ	-5324
▁სივრცეში	-5325
▁ლაბორატორი	-5326
ძლე	-5327
ერებს	-5328
▁ჯარი	-5329
▁სექტემბერს	-5330
პული	-5331
▁საფრანგეთის	-5332
▁ხორციელდება	-5333
აშენ	-5334
▁მედიც	-5335
▁ორიგინ	-5336
▁პროცესს	-5337
▁გავლენას	-5338
▁პლ	-5339
▁კოვ	-5340
▁ჟან	-5341
▁ვერაფ	-5342
all	-5343
▁ორჯერ	-5344
▁საზღვრ	-5345
▁ტენდენ	-5346
▁დამარცხ	-5347
ტიტუტ	-5348
▁საყ	-5349
▁ორსულობის	-5350
ფიც	-5351
აცხადა	-5352
▁გამჭვირ	-5353
▁ძირითად	-5354
უმბ	-5355
▁ცოდნა	-5356
▁კონტრაქ	-5357
▁ტა	-5358
▁შეჩერ	-5359
▁მარიამ	-5360
▁მეუღლე	-5361
▁მიიღეს	-5362
ნიათ	-5363
▁ნიკოლო	-5364
▁ვცდილობ	-5365
აკის	-5366
ატები	-5367
რონიკ	-5368
▁გადაწყვიტა	-5369
▁მიუღ	-5370
▁ტერო	-5371
▁დადებითი	-5372
▁ეკუთ	-5373
წვი	-5374
▁მათთან	-5375
▁მითხრა	-5376
..."	-5377
▁დაზ	-5378
▁კუნთ	-5379
▁აღმას	-5380
▁გაჩერ	-5381
▁მერიის	-5382
▁სასამართლოში	-5383
▁ბანკი	-5384
▁ოღონდ	-5385
▁პერსონა	-5386
▁Ar	-5387
ელიც	-5388
▁იდეა	-5389
▁პრეპარატ	-5390
▁ავღ	-5391
არჩენ	-5392
▁ბრალ	-5393
▁გადაე	-5394
▁უნარი	-5395
▁დამნაშა	-5396
▁გამოწვეული	-5397
გება	-5398
ნესი	-5399
▁აის	-5400
▁მეცნიერების	-5401
ash	-5402
▁მანი	-5403
▁სპეც	-5404
▁გაზაფხ	-5405
▁პერიოდის	-5406
▁სამშენებლო	-5407
▁განსხვავებით	-5408
წერილი	-5409
▁ნათელი	-5410
▁ბიუჯეტი	-5411
▁საფრთხე	-5412
▁მშენებლობა	-5413
აბა	-5414
რში	-5415
გაზე	-5416
▁ზეწ	-5417
ელექტ	-5418
▁ოდეს	-5419
ალურმა	-5420
ულობით	-5421
▁აგრესი	-5422
▁ითქვას	-5423
▁ბარი	-5424
▁ცვლილება	-5425
▁წელიწადში	-5426
▁ბა	-5427
▁მაყურ	-5428
▁ღამის	-5429
▁ხანია	-5430
▁и	-5431
ეტში	-5432
▁წონ	-5433
▁გახარი	-5434
ოხ	-5435
გვლი	-5436
▁ასახ	-5437
▁ინსტიტუტ	-5438
▁მომხდარი	-5439
▁განსაკუთრებულ	-5440
ათო	-5441
პია	-5442
ლოში	-5443
▁სთხო	-5444
▁დაწყებული	-5445
ლექ	-5446
▁შედგება	-5447
▁უფლებათა	-5448
▁შედეგების	-5449
▁კრემ	-5450
▁მეთა	-5451
▁განვი	-5452
▁საფუძველი	-5453
▁პასუხისმგებლობა	-5454
ონტ	-5455
▁დაფუძნ	-5456
▁იწყებს	-5457
▁დატვირთ	-5458
▁წერილი	-5459
▁საავ	-5460
▁ფორმით	-5461
ax	-5462
▁ბრენ	-5463
▁დამახ	-5464
ast	-5465
▁ar	-5466
▁მისაღებად	-5467
▁ქალები	-5468
▁ცხადია	-5469
но	-5470
▁ოფ	-5471
▁ცუ	-5472
ომის	-5473
▁კინ	-5474
▁ქათ	-5475
▁ბედნიერი	-5476
▁პაციენტი	-5477
▁წვი	-5478
▁გაითვალისწინ	-5479
▁უზენა	-5480
▁მოჰყვა	-5481
age	-5482
▁ფს	-5483
▁ავე	-5484
▁ნება	-5485
▁მატარ	-5486
▁ოლიმპი	-5487
▁სტატია	-5488
▁ქრისტეს	-5489
ულით	-5490
შემატ	-5491
▁მატჩი	-5492
▁არაფერს	-5493
წყინ	-5494
▁ვამბ	-5495
▁პირები	-5496
▁მისმა	-5497
▁შეცდომა	-5498
ru	-5499
ასუხო	-5500
▁მდიდა	-5501
▁ზოგადი	-5502
უბი	-5503
ლებულ	-5504
▁ცდილობენ	-5505
▁საპატრიარქ	-5506
სას	-5507
კვეთი	-5508
▁აღინიშ	-5509
ეო	-5510
ცადა	-5511
ლამაზ	-5512
▁მეტო	-5513
▁წმიდა	-5514
▁დამფუძნ	-5515
▁("	-5516
ულობს	-5517
წარმე	-5518
▁მუდმივი	-5519
▁ხანგრძლივი	-5520
▁მოგვ	-5521
▁გაქვს	-5522
შემატკი	-5523
▁აბსოლუტურად	-5524
▁ბეჭ	-5525
▁გმირ	-5526
▁ოპტი	-5527
▁სიცი	-5528
▁დაბალ	-5529
▁გახსნა	-5530
ებულების	-5531
▁მსგავსად	-5532
ქართულად	-5533
▁ტექნიკა	-5534
▁ერი	-5535
▁ვას	-5536
orgia	-5537
▁ნატო	-5538
▁მიღწე	-5539
ტიტუციო	-5540
▁მოვიდა	-5541
?"	-5542
▁ვიყო	-5543
▁მიმოხილ	-5544
გვ	-5545
უთი	-5546
ნიან	-5547
▁რომან	-5548
▁ჯონ	-5549
▁მიწოდ	-5550
▁სავსე	-5551
▁დღეებში	-5552
▁ნაკრების	-5553
▁ფაქტობრივად	-5554
▁ფიგ	-5555
▁თვითმფრინ	-5556
▁საგამოძიებო	-5557
ხვდი	-5558
▁გეტყ	-5559
▁შიგნით	-5560
ანხმ	-5561
ოდეთ	-5562
▁ქურ	-5563
▁გუნდს	-5564
▁ცხოვრებას	-5565
▁თავისუფლება	-5566
კან	-5567
ვული	-5568
მონი	-5569
▁ვარჯიშ	-5570
▁მაშინვე	-5571
▁წყალობით	-5572
რეზიდენტო	-5573
▁არჩევანი	-5574
ity	-5575
ათავ	-5576
ჭერს	-5577
ულობას	-5578
▁ბავშვების	-5579
ავდეს	-5580
▁გაუს	-5581
▁დაუს	-5582
▁ოკუპ	-5583
▁გვიან	-5584
▁იქნას	-5585
▁კაფ	-5586
▁არმი	-5587
▁ტელეკ	-5588
ველობის	-5589
▁ამდენი	-5590
▁გვქონდა	-5591
▁ითვლება	-5592
▁საუბრისას	-5593
ვითხ	-5594
ინიგ	-5595
▁სათამაშო	-5596
▁ელო	-5597
▁ცრემ	-5598
▁სხვათა	-5599
▁პაციენტ	-5600
▁სამკურნალო	-5601
▁აბა	-5602
▁კურსი	-5603
ებრი	-5604
მარჯ	-5605
▁წრე	-5606
▁ჩავი	-5607
▁ხორც	-5608
ონზე	-5609
▁მაუწყ	-5610
▁მინდოდა	-5611
▁პირობები	-5612
▁ამერიკული	-5613
▁იუ	-5614
▁შეაფ	-5615
▁შემდეგაც	-5616
▁მკვლელობის	-5617
▁დამოკიდებულება	-5618
აფარი	-5619
▁პოსტ	-5620
▁ქვედა	-5621
▁ამგვარი	-5622
▁ნარკოტიკ	-5623
ასაც	-5624
▁თეს	-5625
ებართ	-5626
▁საკითხებზე	-5627
ont	-5628
▁ბად	-5629
▁ვახტან	-5630
წრაფ	-5631
ქცე	-5632
ცეფ	-5633
▁კას	-5634
▁კაპიტ	-5635
ტუალური	-5636
თავაზობს	-5637
▁y	-5638
ყოს	-5639
▁ვკითხ	-5640
▁იყენებენ	-5641
▁დაგეგმილი	-5642
▁გამოყენებული	-5643
?-	-5644
ებულთა	-5645
▁არქიტექტ	-5646
▁ფერის	-5647
▁საზღვარგარეთ	-5648
▁ღამე	-5649
▁შევე	-5650
ატიული	-5651
▁განსახ	-5652
▁კრიმინ	-5653
▁მწვავე	-5654
ვრი	-5655
პონ	-5656
უბნ	-5657
აკულ	-5658
თანავე	-5659
▁მეტია	-5660
▁ერთიანი	-5661
▁აღმასრულ	-5662
ოდე	-5663
▁აიღ	-5664
▁გამოჩნდა	-5665
▁უმრავლესობა	-5666
ტურა	-5667
ხელა	-5668
ებლების	-5669
▁პოლიტიკოს	-5670
ალვა	-5671
ტესტო	-5672
▁გაან	-5673
▁დიმიტრი	-5674
ჭის	-5675
▁for	-5676
▁ბრუნ	-5677
▁იბრძ	-5678
▁პოტენცი	-5679
▁მუშაობას	-5680
▁მცხოვრები	-5681
▁ცვლილებების	-5682
ant	-5683
ევის	-5684
ments	-5685
▁ანალო	-5686
▁დარბაზ	-5687
▁არასრულ	-5688
▁ლექ	-5689
▁ვრცელ	-5690
▁სუპერ	-5691
ალიზაციის	-5692
▁დაიწყება	-5693
▁მოქმედება	-5694
▁კონსტიტუცი	-5695
ოპერ	-5696
▁ამჯერად	-5697
▁საინტერესოა	-5698
▁საკონსტიტუციო	-5699
▁დევნი	-5700
▁დიდხანს	-5701
ისაა	-5702
▁გამოუ	-5703
▁დაუყო	-5704
ავდროულად	-5705
▁ნორმალური	-5706
▁გამოაქვეყ	-5707
▁გაჩ	-5708
▁ზვი	-5709
აკლის	-5710
ებისაგან	-5711
ჭირდებათ	-5712
▁ინფრასტრუქტურის	-5713
ვარე	-5714
▁მეტყ	-5715
▁ბოსტნე	-5716
▁შემდგომი	-5717
ურგ	-5718
წორი	-5719
▁აფეთქ	-5720
▁დიზაინ	-5721
▁მხარის	-5722
▁პროდუქციის	-5723
▁პარალელურად	-5724
▁საპრეზიდენტო	-5725
ვიდე	-5726
ოლას	-5727
ჩევთ	-5728
ხილეთ	-5729
პისკოპ	-5730
▁შეღ	-5731
ფეროს	-5732
▁მოწმ	-5733
▁კონცერ	-5734
▁საუბრობს	-5735
▁რამდენჯერ	-5736
▁ვიცო	-5737
▁ბაზრის	-5738
▁იყენებს	-5739
▁სატრანს	-5740
ვოს	-5741
აკლი	-5742
▁გარი	-5743
▁მოცი	-5744
▁სირთ	-5745
▁იურიდიული	-5746
▁ინსტიტუტის	-5747
▁დაავადებების	-5748
▁შეის	-5749
ტანის	-5750
▁გეგმის	-5751
▁ერთობლივი	-5752
▁ქცე	-5753
▁პარკ	-5754
▁თანხის	-5755
▁პედაგოგ	-5756
▁უნივერსიტეტში	-5757
პასუხ	-5758
▁დროში	-5759
▁შვილის	-5760
▁ოპოზიცია	-5761
იზ	-5762
ერზე	-5763
▁რუსი	-5764
▁შევძ	-5765
▁იცოდა	-5766
▁კომბინ	-5767
ებრძ	-5768
▁სიმღ	-5769
▁პროკურო	-5770
ფილი	-5771
ერილი	-5772
▁დონე	-5773
▁დედის	-5774
▁ურთიერთობების	-5775
ობად	-5776
ებოდეს	-5777
▁არჩილ	-5778
▁განიც	-5779
▁ყოველწლი	-5780
▁მშენებლობის	-5781
ულთა	-5782
ebook	-5783
▁ლონდ	-5784
▁სტადი	-5785
▁შესაფ	-5786
ff	-5787
▁აღმ	-5788
▁ინდო	-5789
ავრცელ	-5790
▁მოქალაქეებს	-5791
ვებთ	-5792
▁გაცნ	-5793
▁ცხი	-5794
ოტ	-5795
ლობენ	-5796
ქმედო	-5797
▁გამოჩ	-5798
▁დაღუპ	-5799
▁სიგრძ	-5800
▁მოედან	-5801
▁ცოცხალი	-5802
▁ბიუჯეტის	-5803
▁უარყოფითი	-5804
უნდა	-5805
ელიას	-5806
▁იმერ	-5807
▁უგულ	-5808
▁ფერი	-5809
▁ცივი	-5810
ურობას	-5811
▁ცხელი	-5812
▁ვხედავ	-5813
▁ეკონომიკა	-5814
▁ხანგრძლივ	-5815
www	-5816
▁გადის	-5817
▁სხეული	-5818
▁შეესაბამ	-5819
▁ხელისუფლებამ	-5820
ელჩ	-5821
ჭრა	-5822
ოდის	-5823
▁ერის	-5824
▁იანვარს	-5825
▁დაბადების	-5826
▁უკრაინაში	-5827
ვაა	-5828
▁ჭიქა	-5829
▁კანდიდატი	-5830
▁სექსუალური	-5831
▁ძლიერ	-5832
▁უზარმა	-5833
▁ფორმის	-5834
ress	-5835
▁მაი	-5836
▁აქვე	-5837
▁შრომ	-5838
▁ხორცი	-5839
▁აწარმო	-5840
ინჯ	-5841
ყენა	-5842
▁სწავლა	-5843
ეტო	-5844
▁უჭირ	-5845
ავების	-5846
▁საბრძ	-5847
▁ყოფნა	-5848
▁დადებით	-5849
▁ეშ	-5850
▁აქც	-5851
▁სით	-5852
▁ვერსია	-5853
▁გაგზავ	-5854
▁მკაცრი	-5855
გრძელებს	-5856
რირებული	-5857
▁დაუბრუნ	-5858
▁ემი	-5859
არაძე	-5860
▁ამოღ	-5861
▁შეეც	-5862
▁თავში	-5863
▁ჯანსაღი	-5864
▁მშვიდობი	-5865
▁სომხეთის	-5866
▁შესაძლებლობას	-5867
ჰი	-5868
კლო	-5869
ხსო	-5870
▁თანხმ	-5871
ომპანია	-5872
▁შესყიდ	-5873
ust	-5874
ight	-5875
▁პაპ	-5876
▁ჩაკ	-5877
▁გზას	-5878
▁როლს	-5879
▁შეხვ	-5880
▁ცხინ	-5881
▁გრაფი	-5882
▁პროექტების	-5883
▁გავრცელების	-5884
უროს	-5885
▁ცის	-5886
ებულს	-5887
▁ჩანაწერ	-5888
ელოს	-5889
გრაფი	-5890
▁ვარა	-5891
▁ზუგდი	-5892
acebook	-5893
▁სიყვარულის	-5894
▁მონაცემების	-5895
ск	-5896
▁მარშ	-5897
▁ცუდად	-5898
▁დღესაც	-5899
ტყუ	-5900
▁აწყ	-5901
▁გაამ	-5902
▁გადადგ	-5903
არტი	-5904
▁თავიანთ	-5905
▁კოდექსის	-5906
ურით	-5907
▁შიში	-5908
▁ქორწინ	-5909
▁პირების	-5910
▁უნივერსიტეტი	-5911
▁მელ	-5912
▁რუსეთს	-5913
▁მუშაობდა	-5914
▁სამყაროში	-5915
▁ქარხ	-5916
▁შეთანხმების	-5917
ლანდი	-5918
ჭიდრო	-5919
▁ლექს	-5920
▁მკვლევ	-5921
iz	-5922
▁მგონი	-5923
▁სეზონის	-5924
▁ინდივიდუალური	-5925
ჟინ	-5926
ანას	-5927
ერიმ	-5928
▁ბაი	-5929
▁ტერ	-5930
მეთქი	-5931
მათ	-5932
ღის	-5933
▁დომ	-5934
ებდით	-5935
▁იმით	-5936
▁სახს	-5937
▁ნათია	-5938
▁მოდელი	-5939
▁მსუბუქი	-5940
ph	-5941
ელით	-5942
▁ბაგ	-5943
▁ჩარ	-5944
▁ჭრი	-5945
▁მხარი	-5946
▁ფიქრობს	-5947
▁თებერვალს	-5948
▁საზოგადოებაში	-5949
TV	-5950
▁დოზ	-5951
▁დღეა	-5952
▁ხელით	-5953
▁გულშემატკი	-5954
port	-5955
ნდება	-5956
წილად	-5957
▁ვაპირ	-5958
ანსის	-5959
▁გააც	-5960
▁ღიმი	-5961
▁შეძლო	-5962
▁ორიენტი	-5963
უმს	-5964
▁da	-5965
▁სამეფო	-5966
▁შექმნას	-5967
▁სახელმძღვანელო	-5968
ქართულ	-5969
▁მეტიც	-5970
▁დადგენ	-5971
▁ბიზნესი	-5972
▁ყველაფერ	-5973
▁ძალისხმე	-5974
პრე	-5975
▁ოჯახს	-5976
ეთუ	-5977
ქმედება	-5978
▁სანაპირო	-5979
ud	-5980
წერის	-5981
ატორის	-5982
▁მდგრადი	-5983
▁სირ	-5984
▁ტრავ	-5985
▁ნომერი	-5986
ry	-5987
ძახ	-5988
▁მიაჩ	-5989
▁მახსოვს	-5990
▁სოფელში	-5991
▁განის	-5992
▁ლექსი	-5993
▁→	-5994
დინა	-5995
ემის	-5996
▁ზაზა	-5997
აქვს	-5998
ვიწყ	-5999
ტიის	-6000
▁შიშ	-6001
ბურთო	-6002
▁არჩე	-6003
▁დედას	-6004
▁ფაკულ	-6005
▁გართულ	-6006
▁საავადმყოფოში	-6007
ous	-6008
▁ფაქტორი	-6009
▁განუცხადა	-6010
▁რეგიონული	-6011
▁შემცირება	-6012
pp	-6013
▁ადა	-6014
▁ფენ	-6015
▁დარტყ	-6016
▁საიტზე	-6017
▁პოპულარ	-6018
▁მუც	-6019
▁მომღერ	-6020
▁პრაქტიკულად	-6021
ოცნ	-6022
ყვარე	-6023
ისტური	-6024
▁თანაბ	-6025
▁დაიღუპ	-6026
!!!	-6027
▁კრ	-6028
▁სტუ	-6029
ბეჭდი	-6030
ენიან	-6031
▁ერთიან	-6032
ცხო	-6033
ადეს	-6034
▁ეთერში	-6035
▁ვგრძნობ	-6036
მედო	-6037
რონი	-6038
▁ამან	-6039
▁ხანძ	-6040
▁წინამ	-6041
▁უგ	-6042
ედის	-6043
▁ლარს	-6044
▁ლაშა	-6045
▁შეცვლა	-6046
▁დაუყოვნებ	-6047
ill	-6048
ლეთ	-6049
▁ქირ	-6050
▁აფას	-6051
▁დაშვ	-6052
▁საათში	-6053
▁სისტემაში	-6054
▁დანაშაულის	-6055
ტიმ	-6056
▁იდ	-6057
ერვა	-6058
▁ჰერ	-6059
ახვის	-6060
▁http	-6061
▁გაუქმ	-6062
ძრა	-6063
წით	-6064
▁განკუთ	-6065
▁მოსაზრ	-6066
▁წარმოუ	-6067
▁წაიკითხ	-6068
▁პრიორიტეტ	-6069
▁ამირ	-6070
▁არასწორი	-6071
▁ბუნებრივია	-6072
▁გავრცელებულ	-6073
▁ადმინისტრაციული	-6074
▁დამოუკიდებლობის	-6075
ეპ	-6076
ფინ	-6077
ანკო	-6078
ვნით	-6079
აკლებ	-6080
▁რეცეპ	-6081
▁გლობალური	-6082
▁ყაზ	-6083
ყვანის	-6084
▁საელჩ	-6085
ყავი	-6086
▁ადასტურ	-6087
▁მოიპოვა	-6088
▁ჩინეთის	-6089
ველმა	-6090
▁მენს	-6091
▁შეწყ	-6092
▁დედოფ	-6093
▁ველოდ	-6094
▁შეძენა	-6095
▁მშობლები	-6096
▁არე	-6097
ოფი	-6098
▁ტუჩ	-6099
ლიური	-6100
▁დელეგ	-6101
▁ვახტანგ	-6102
▁პარტნიო	-6103
ტანტ	-6104
▁სიბ	-6105
▁კოლო	-6106
▁გოგონას	-6107
▁გამარჯვება	-6108
ie	-6109
▁აბი	-6110
▁კრე	-6111
▁ფეს	-6112
ერთან	-6113
ინებს	-6114
ობასთან	-6115
▁ლიტერატურ	-6116
▁დაარს	-6117
▁თბილი	-6118
▁თამაშები	-6119
▁იშვიათად	-6120
▁პირობების	-6121
▁ანდ	-6122
ვრული	-6123
▁თირკ	-6124
▁კანი	-6125
როგორც	-6126
▁ავღან	-6127
▁იციან	-6128
▁ნათეს	-6129
▁დღევანდელ	-6130
▁სტრატეგიული	-6131
▁>	-6132
▁იფიქ	-6133
▁ფინანსთა	-6134
ცირებს	-6135
▁წყალში	-6136
▁უშუალოდ	-6137
ре	-6138
▁ხვ	-6139
წყოთ	-6140
ტარული	-6141
▁COVID	-6142
▁ვერსი	-6143
▁ავტომატ	-6144
▁მხარდაჭერით	-6145
▁მომხმარებლის	-6146
ბუქ	-6147
ჯდა	-6148
ინტერ	-6149
ჰაერო	-6150
ათვალი	-6151
▁ავტორ	-6152
▁გამგე	-6153
▁შენიშ	-6154
▁მთავრობას	-6155
▁Bl	-6156
ასტრო	-6157
▁იმყოფება	-6158
▁წამყვანი	-6159
one	-6160
რაც	-6161
ვრად	-6162
▁ყველგან	-6163
▁ორგანიზაციების	-6164
▁ბექ	-6165
▁ნელ	-6166
▁ღამით	-6167
▁ხელფას	-6168
▁სასმ	-6169
▁ნაციონალური	-6170
▁ოფიციალურად	-6171
არას	-6172
ჭერი	-6173
▁ძალზე	-6174
ხილა	-6175
▁განმ	-6176
▁ხმის	-6177
ენერგი	-6178
ოდენიმე	-6179
▁ბატონი	-6180
▁დაზღვე	-6181
▁მართვა	-6182
▁სექტორის	-6183
▁თავდაპირველად	-6184
ჭა	-6185
ენია	-6186
ინიშნ	-6187
კარად	-6188
ქმნის	-6189
▁რუსულ	-6190
▁საბჭო	-6191
▁ირგვლი	-6192
▁დოკუმენტი	-6193
▁პარტნიორი	-6194
ish	-6195
▁ჰოლ	-6196
▁სიკვდილის	-6197
▁აზერბაიჯანის	-6198
წო	-6199
დოთ	-6200
▁უცნობ	-6201
▁ავადმყოფ	-6202
▁მეგობრები	-6203
▁სამართლიან	-6204
▁საქმიანობა	-6205
▁შეთანხმება	-6206
▁ველ	-6207
▁უსი	-6208
▁სუბი	-6209
▁მიზან	-6210
▁Posted	-6211
▁სიმართლე	-6212
▁ბიბლიოთეკ	-6213
▁მონაწილეობის	-6214
▁დამოკიდებულია	-6215
ვაო	-6216
▁ბუ	-6217
შირე	-6218
▁გაგრძელდება	-6219
▁აცი	-6220
▁ეხმარება	-6221
▁დარჩენილი	-6222
▁თავმჯდომარემ	-6223
ბან	-6224
▁ბაკ	-6225
▁სხდომ	-6226
▁იდეალური	-6227
▁ქვა	-6228
▁დაიხ	-6229
▁სვან	-6230
ულისხმ	-6231
▁საშვი	-6232
▁მობილური	-6233
▁დაუყოვნებლივ	-6234
▁კვარ	-6235
ყვარდა	-6236
▁მასალ	-6237
▁ნებართ	-6238
▁წყაროს	-6239
end	-6240
ებრ	-6241
არბი	-6242
ურეს	-6243
▁ვერა	-6244
▁ისაა	-6245
▁მატერი	-6246
▁შეუწყობს	-6247
▁მოქალაქეების	-6248
nik	-6249
▁სირი	-6250
▁ხდებოდა	-6251
▁სასურველი	-6252
არაგ	-6253
ძლავ	-6254
▁კუნძ	-6255
▁ყვავი	-6256
▁ეკონომიკურ	-6257
▁საპროტესტო	-6258
აკენ	-6259
▁შორს	-6260
▁შთაბეჭდი	-6261
▁წევრების	-6262
▁მოვლენები	-6263
▁მომხმარებელს	-6264
შობ	-6265
▁მირ	-6266
▁თორემ	-6267
▁ისარგებ	-6268
▁უმაღლეს	-6269
▁გადაწყვე	-6270
▁ივანიშვილი	-6271
▁განხორციელებული	-6272
▁კგ	-6273
▁თმა	-6274
▁იქცა	-6275
▁მასალა	-6276
▁ჩემთან	-6277
▁შეიცვალა	-6278
▁რეჟისორი	-6279
▁ყოველივე	-6280
▁შესთავაზ	-6281
▁შეფასება	-6282
ირს	-6283
▁ითხოვს	-6284
▁ძალაუფ	-6285
▁სავალდებ	-6286
ყე	-6287
მოდ	-6288
ევად	-6289
▁იერ	-6290
ონტაჟ	-6291
▁ლოგი	-6292
ენტური	-6293
▁ნაყოფი	-6294
▁შენობა	-6295
▁შორ	-6296
▁ჩაბ	-6297
▁ეხლა	-6298
▁ქუჩაში	-6299
▁ქუთაისში	-6300
▁ადმინისტრაციის	-6301
▁Z	-6302
▁ვგ	-6303
▁მღ	-6304
▁უარს	-6305
▁უკიდ	-6306
▁სავარაუდო	-6307
▁ხელმისაწვდომი	-6308
▁ესე	-6309
არსებ	-6310
პორცი	-6311
ფორმის	-6312
▁სათანადო	-6313
არქი	-6314
▁თურმე	-6315
▁უნდოდა	-6316
▁წინადა	-6317
▁თანდათან	-6318
▁ტრადიციული	-6319
▁განხორციელდა	-6320
▁დაგეხმარებათ	-6321
▁მცხ	-6322
ინები	-6323
▁არსებობის	-6324
აგო	-6325
▁ინგრ	-6326
▁სეზონი	-6327
▁ქაღ	-6328
რებმა	-6329
▁უძველ	-6330
▁ნაკრები	-6331
▁უცნაური	-6332
▁წარმოება	-6333
▁საკითხები	-6334
▁პროგრამები	-6335
▁კალათ	-6336
▁აღწერა	-6337
▁მენსტრ	-6338
▁მსახიობი	-6339
თვი	-6340
▁ფეის	-6341
▁უპასუხა	-6342
▁განახორციელ	-6343
ზინ	-6344
▁მაშ	-6345
▁ცეკ	-6346
▁ბარათ	-6347
▁დასკვნ	-6348
▁ინგრედი	-6349
▁საქალაქ	-6350
აჯ	-6351
ღო	-6352
უსში	-6353
▁ლან	-6354
▁ბრძოლაში	-6355
▁საკვების	-6356
▁რამოდენიმე	-6357
▁გავხ	-6358
▁ნორმ	-6359
▁მალევე	-6360
▁ირგვლივ	-6361
▁დამახასიათ	-6362
▁აღე	-6363
▁განზრ	-6364
▁ვაკეთ	-6365
▁სასწა	-6366
▁ვითარდება	-6367
▁პროდუქტები	-6368
▁საკითხებში	-6369
ექი	-6370
▁ალე	-6371
▁კილო	-6372
▁სულაც	-6373
▁საქართველოსთვის	-6374
▁ჰუმ	-6375
▁ზომა	-6376
▁ახერხ	-6377
▁წასვლა	-6378
▁საშვილოს	-6379
▁ამერიკელი	-6380
▁სამართლებრივი	-6381
ლაძე	-6382
▁ნიღ	-6383
ვალში	-6384
ყვანილი	-6385
ავში	-6386
▁კალი	-6387
▁დროებით	-6388
▁ვირუსის	-6389
ოცხ	-6390
კარა	-6391
▁თაფ	-6392
▁ლუკ	-6393
დივარ	-6394
▁აზროვნ	-6395
▁ქრონიკ	-6396
▁ამომრჩე	-6397
▁რეჟიმის	-6398
▁გამოძიების	-6399
ive	-6400
ისის	-6401
▁ათი	-6402
▁ამინ	-6403
▁შოთა	-6404
▁კონცეფ	-6405
▁მომზადება	-6406
▁მონაცემთა	-6407
▁გაუჩ	-6408
▁სწავლის	-6409
ანქ	-6410
უალ	-6411
ცნო	-6412
▁ჰქ	-6413
დაზე	-6414
▁ხატ	-6415
ლავის	-6416
ობრივ	-6417
▁გამოცემა	-6418
▁განმარტებით	-6419
▁ყოველდღიურად	-6420
ზარი	-6421
ლებელი	-6422
▁კმ	-6423
▁დავამ	-6424
▁გადასახად	-6425
▁ტრანსპორტი	-6426
ძლევთ	-6427
▁არან	-6428
▁დაგვი	-6429
▁სულის	-6430
▁ხელსა	-6431
ფო	-6432
▁გადაიხ	-6433
▁კურსის	-6434
მთ	-6435
▁უახ	-6436
ებადი	-6437
რუსთავი	-6438
▁ყოვლის	-6439
▁ზედმეტი	-6440
▁სახელწოდ	-6441
რებელი	-6442
▁ფილოს	-6443
▁აშკარად	-6444
▁ლაქ	-6445
კვეთა	-6446
▁მსურ	-6447
ნარი	-6448
ტაცი	-6449
▁მიიღოთ	-6450
▁დიზაინი	-6451
▁ბულ	-6452
ირებს	-6453
▁კულტურა	-6454
რულო	-6455
მეტად	-6456
▁სითხ	-6457
▁გამართული	-6458
▁შეინარჩუნ	-6459
▁პროდუქტების	-6460
▁სავალდებულო	-6461
ER	-6462
ჭირა	-6463
▁ეპო	-6464
▁რაგ	-6465
▁მდინ	-6466
ვლისას	-6467
ირებას	-6468
ug	-6469
ტოლ	-6470
▁ფრინ	-6471
▁ყავის	-6472
▁შეყვარ	-6473
▁გაიხსნა	-6474
▁არსებობდა	-6475
▁მხარდაჭერის	-6476
ES	-6477
ეთილი	-6478
ვლელი	-6479
▁სანი	-6480
▁ფრთხ	-6481
ოლოგიურ	-6482
▁დროსაც	-6483
▁კონტაქ	-6484
▁უფლებას	-6485
▁განადგურ	-6486
▁ინტერესი	-6487
▁მაქსიმალური	-6488
▁ეჭვი	-6489
▁სულიერი	-6490
აბჭ	-6491
ულე	-6492
▁ქულა	-6493
კვეთის	-6494
▁ბრაზი	-6495
▁სიაში	-6496
▁ჩაერთ	-6497
▁არავით	-6498
ли	-6499
▁ახლობ	-6500
ისათვის	-6501
▁ქსელის	-6502
):	-6503
ell	-6504
▁ბაბ	-6505
▁ნიჭი	-6506
▁რადიკ	-6507
▁ანალიზი	-6508
▁საკითხს	-6509
▁დიპლომატი	-6510
▁წარმოუდგენ	-6511
▁ლოც	-6512
▁ცნობილ	-6513
▁ცენტრალურ	-6514
პრეს	-6515
ვესტი	-6516
▁მითხ	-6517
▁მოდი	-6518
▁ევროს	-6519
▁მჭიდრო	-6520
▁გახლავთ	-6521
▁გადავწყვი	-6522
▁პრეპარატის	-6523
იმს	-6524
▁ოზ	-6525
ობრი	-6526
▁მედ	-6527
▁გაურ	-6528
▁შთამ	-6529
ებულნი	-6530
ლობები	-6531
▁ექვსი	-6532
▁ვმუშა	-6533
▁შტატების	-6534
▁დირექტორის	-6535
რდ	-6536
წურ	-6537
▁ფურც	-6538
ებლებს	-6539
▁ხელმო	-6540
ათავისუფ	-6541
ტექ	-6542
▁მოედანზე	-6543
▁რეგიონებში	-6544
▁უმრავლესობის	-6545
▁st	-6546
▁დღით	-6547
ასწარი	-6548
▁გადაუხ	-6549
▁დაიბადა	-6550
▁დროისთვის	-6551
▁პირს	-6552
▁უფლის	-6553
▁ვამბობ	-6554
▁ვისაუბ	-6555
▁ელჩ	-6556
▁ზარ	-6557
▁ჭურ	-6558
აზღვრა	-6559
▁პრეტენ	-6560
▁შეეძლო	-6561
▁აქტივის	-6562
▁ღონისძიება	-6563
იმე	-6564
ოჯახ	-6565
▁ვიღ	-6566
შვიდობ	-6567
▁გორის	-6568
▁წონის	-6569
▁კოორდინ	-6570
▁თვისებები	-6571
▁ყინ	-6572
მიანი	-6573
▁მოკლ	-6574
▁გაზის	-6575
▁შერჩე	-6576
▁კლასის	-6577
▁მაინტერესებს	-6578
▁ურთიერთობები	-6579
▁ვუთხ	-6580
▁დაკვირ	-6581
▁საჰაერო	-6582
ცირეს	-6583
▁მიზნად	-6584
▁საკითხის	-6585
▁ფეხბურთი	-6586
როვ	-6587
▁ზეთი	-6588
▁აღვნიშნ	-6589
▁მოახდინ	-6590
▁პატრიარქ	-6591
▁რადგანაც	-6592
▁ინსტრუმენტ	-6593
აშიც	-6594
ამოწმ	-6595
▁კარტო	-6596
▁შეგრძ	-6597
▁ნიკოლოზ	-6598
კლავ	-6599
უტო	-6600
▁დოქ	-6601
ტაციო	-6602
▁გაზი	-6603
▁კორე	-6604
▁ბრალი	-6605
▁გამოვიყენ	-6606
▁მუნიციპალიტეტში	-6607
ამაღ	-6608
▁შინ	-6609
▁დაგი	-6610
▁მოწოდ	-6611
▁კათოლი	-6612
▁განხილვა	-6613
▁ჩემპიონატ	-6614
io	-6615
▁მძ	-6616
ნობი	-6617
▁მოწვე	-6618
▁ამტკიც	-6619
▁ნაწარმო	-6620
▁საუკუნეში	-6621
leb	-6622
▁მოყ	-6623
▁გონი	-6624
▁მეუფ	-6625
▁მსჯე	-6626
▁მხედ	-6627
▁მერის	-6628
▁ფაქტორ	-6629
▁სიმბოლო	-6630
ურში	-6631
▁ვიკი	-6632
▁მაია	-6633
▁მარტ	-6634
▁მესი	-6635
▁ტიპი	-6636
▁კოვიდ	-6637
▁მთავრობამ	-6638
წილი	-6639
▁კაბინ	-6640
▁გამოვა	-6641
▁მობილი	-6642
▁ეპიდემი	-6643
▁საბერძნ	-6644
▁სამუშაოს	-6645
▁)	-6646
მამ	-6647
▁ნაწ	-6648
ვრები	-6649
ნიკური	-6650
▁აფხაზ	-6651
▁მაგარი	-6652
▁დაამარცხ	-6653
▁ექსპერიმ	-6654
▁ადამიანმა	-6655
▁ფეხბურთის	-6656
ელე	-6657
▁გარემოში	-6658
ne	-6659
წევად	-6660
▁განცხადებები	-6661
▁მეტოქ	-6662
▁სტალი	-6663
▁გაღ	-6664
▁პლას	-6665
▁საბანკო	-6666
▁წევრებს	-6667
▁ავტომობილ	-6668
▁საქართველომ	-6669
მც	-6670
ოთი	-6671
ტრის	-6672
▁იქვე	-6673
ულიერო	-6674
▁საქალაქო	-6675
▁ვრცელდება	-6676
▁ემსახურება	-6677
შან	-6678
ახია	-6679
ეროთ	-6680
ციამ	-6681
▁ლეგ	-6682
▁ითამაშ	-6683
▁იქიდან	-6684
▁სპორტს	-6685
▁სურათი	-6686
▁მომხდარ	-6687
▁ფუნქცია	-6688
▁რუსთაველის	-6689
▁სატრანსპორტო	-6690
uc	-6691
ნელა	-6692
▁მორიგი	-6693
▁ყოფნის	-6694
▁მოუწოდებს	-6695
▁ხელშეკრულების	-6696
▁о	-6697
▁აღზრ	-6698
დგომის	-6699
▁ვეტერ	-6700
▁კორუფ	-6701
▁სინათ	-6702
▁სხვის	-6703
▁დაადას	-6704
▁მივიდა	-6705
▁ელექტროენერგი	-6706
▁უმნიშვნელოვან	-6707
ობაც	-6708
გისტრი	-6709
▁ფონდი	-6710
▁ბრწყინ	-6711
▁დაყრდნ	-6712
ies	-6713
ადე	-6714
▁იტ	-6715
▁არხ	-6716
▁ფოს	-6717
ევადი	-6718
▁გაუკ	-6719
▁იდგა	-6720
არიანი	-6721
ჯანმრთ	-6722
▁ერთდროულად	-6723
ტყვი	-6724
utnik	-6725
▁სიღრ	-6726
▁იგეგმ	-6727
▁იარაღის	-6728
▁პატივის	-6729
▁ყოველდღიური	-6730
ро	-6731
დგარი	-6732
▁წლით	-6733
▁მოდელ	-6734
▁ადვოკატ	-6735
▁პარამეტ	-6736
▁გამოკვლე	-6737
▁ენერგიის	-6738
▁ბრიტანეთის	-6739
▁ვხვ	-6740
ერთმა	-6741
ძალიან	-6742
▁გრძელი	-6743
▁ღონისძიების	-6744
▁დაის	-6745
▁დანი	-6746
▁დაიღუპა	-6747
▁მკერ	-6748
▁იაპონი	-6749
▁უყვარს	-6750
▁იცვლება	-6751
▁კომპანიას	-6752
▁არასრულწლო	-6753
▁შემადგენლობაში	-6754
ary	-6755
ჭავ	-6756
რიანი	-6757
▁დაგვ	-6758
ლოვანი	-6759
▁გულწრ	-6760
▁რობერ	-6761
▁მატჩის	-6762
▁გამორჩეული	-6763
ect	-6764
ინმა	-6765
▁რიცხვი	-6766
▁ოპერაცია	-6767
▁სასულიერო	-6768
▁დირექტორმა	-6769
▁გაერთიანებული	-6770
ოო	-6771
ეროს	-6772
ember	-6773
▁მოხს	-6774
▁გემრი	-6775
▁გახლდათ	-6776
▁შეზღუდული	-6777
▁ჩამონ	-6778
დული	-6779
▁მისგან	-6780
▁გითხრათ	-6781
▁ასრულებს	-6782
▁კონსტანტ	-6783
ლმ	-6784
მულ	-6785
▁ვს	-6786
როლა	-6787
▁ფრა	-6788
▁ელოდ	-6789
▁ინცი	-6790
თათვის	-6791
უბნება	-6792
▁შალვა	-6793
▁წუთში	-6794
▁დაწერა	-6795
▁შეწყვე	-6796
▁გარდაცვალების	-6797
ure	-6798
▁ფა	-6799
გრან	-6800
უალურ	-6801
ანების	-6802
▁პოსტი	-6803
▁მოვლენების	-6804
ip	-6805
ალკ	-6806
▁თი	-6807
▁მოგვი	-6808
▁შვილს	-6809
▁იღებენ	-6810
ირავდება	-6811
▁გეგმავს	-6812
▁ოფიციალურ	-6813
▁შეესაბამება	-6814
AR	-6815
ოზე	-6816
▁ბოდი	-6817
ოგრაფია	-6818
▁შეადგინა	-6819
▁ტორ	-6820
▁მეტის	-6821
▁მიაღწია	-6822
▁უნივერსიტეტ	-6823
ეხმა	-6824
▁გაძ	-6825
▁ვიც	-6826
▁მთა	-6827
▁მარც	-6828
▁პასუხისმგ	-6829
ართან	-6830
▁თანა	-6831
▁შეკითხ	-6832
▁ტერიტორია	-6833
გებს	-6834
▁განლაგ	-6835
▁მდიდარი	-6836
▁ასოციაციის	-6837
▁დაფიქსირდა	-6838
▁თვალის	-6839
▁შეძლებს	-6840
▁იკ	-6841
▁ფლო	-6842
▁წოდ	-6843
▁დაიწყეს	-6844
მინისტრმა	-6845
ეხი	-6846
▁მიიჩნე	-6847
▁აღჭურვი	-6848
▁უმჯობეს	-6849
ოგრაფიული	-6850
▁ფედერაციის	-6851
gle	-6852
▁ბახ	-6853
მარის	-6854
▁დაიკ	-6855
▁პრეზიდენტს	-6856
▁ნას	-6857
თანამ	-6858
▁უმთავ	-6859
▁გზების	-6860
▁არსებობა	-6861
▁ვითარება	-6862
▁სწავლების	-6863
▁წინასწარი	-6864
▁გამოაქვეყნა	-6865
▁სამუშაოების	-6866
ma	-6867
არშ	-6868
▁ტარი	-6869
▁მტკიცებულ	-6870
▁პრობლემას	-6871
▁განხორციელების	-6872
ტკ	-6873
ომას	-6874
▁ცოლი	-6875
მხრივი	-6876
▁სტატუსი	-6877
▁კონკურენ	-6878
▁სიმპტომები	-6879
აო	-6880
ზერ	-6881
▁თელ	-6882
ალითი	-6883
გამარჯ	-6884
▁მათემა	-6885
▁გამოიყურება	-6886
პიის	-6887
ცემთ	-6888
▁ესაა	-6889
▁დეფიცი	-6890
▁პრინცი	-6891
▁სახეზე	-6892
▁დარღვევა	-6893
▁რესპუბლიკ	-6894
ran	-6895
▁ჩაგ	-6896
ებინათ	-6897
▁გამართა	-6898
▁მთლიანი	-6899
▁მომენტი	-6900
▁ცდილობდა	-6901
▁დახმარებას	-6902
▁საჭიროების	-6903
▁შემთხვევით	-6904
▁საშუალებები	-6905
კალ	-6906
▁გაზეთ	-6907
▁კოვზი	-6908
▁პირთა	-6909
ალიზაცია	-6910
▁კითხვაზე	-6911
▁უღ	-6912
როგორ	-6913
▁მიღმა	-6914
▁რეალურ	-6915
▁საოცარი	-6916
▁წარმოდგენ	-6917
].	-6918
კრე	-6919
ურთა	-6920
▁შვე	-6921
▁დანა	-6922
▁ჩარჩ	-6923
▁ფაქტზე	-6924
▁მონაკვეთ	-6925
▁რამდენჯერმე	-6926
▁ბერი	-6927
▁გიგა	-6928
▁მუდამ	-6929
▁აჩვენა	-6930
▁დოლარის	-6931
▁საიდანაც	-6932
▁კის	-6933
▁კოალი	-6934
▁სიმსი	-6935
▁ამერიკაში	-6936
დობ	-6937
უშის	-6938
უფთავ	-6939
ჩვეულ	-6940
▁არქი	-6941
▁უწყების	-6942
▁წარმომადგენლებს	-6943
und	-6944
ყოფს	-6945
▁კაპ	-6946
▁ძებ	-6947
▁წესები	-6948
▁შენობის	-6949
რწ	-6950
პრი	-6951
ავამ	-6952
▁აზი	-6953
▁შედგა	-6954
▁საშიში	-6955
▁მარჯვენა	-6956
▁დადგენილი	-6957
▁ახორციელებს	-6958
▁Am	-6959
▁დროზე	-6960
▁შიმში	-6961
▁რამეთუ	-6962
ram	-6963
გზე	-6964
ურებს	-6965
ინდელი	-6966
▁გადან	-6967
▁გაჩნდა	-6968
▁სფეროს	-6969
▁ტვინის	-6970
ვაც	-6971
▁წნე	-6972
ტებით	-6973
ულიყო	-6974
▁დაიმ	-6975
▁რისკი	-6976
▁ქირურ	-6977
▁წყალს	-6978
▁რაიონში	-6979
▁განხორციელება	-6980
")	-6981
გიურ	-6982
ენილ	-6983
ნოზი	-6984
▁რაზეც	-6985
▁პასუხს	-6986
▁მომწონს	-6987
▁უმცირეს	-6988
▁კონსტიტუ	-6989
▁საშინელი	-6990
▁ყოველგვარი	-6991
▁Q	-6992
ნაც	-6993
არეთ	-6994
▁ბეს	-6995
▁ყურძ	-6996
▁ამოიღ	-6997
▁დავინახ	-6998
გერ	-6999
▁სც	-7000
▁ტრაგ	-7001
vi	-7002
სოვ	-7003
ენები	-7004
ვარში	-7005
▁წინასა	-7006
▁ტურისტული	-7007
▁ამავდროულად	-7008
ასე	-7009
▁გაუფ	-7010
▁კურო	-7011
▁ზვიად	-7012
▁თეატრის	-7013
▁რისთვის	-7014
▁გავრცელდა	-7015
სუ	-7016
▁Al	-7017
▁გარეგნ	-7018
▁პროპორცი	-7019
▁შემთხვევები	-7020
ავლი	-7021
▁ბრო	-7022
ვლები	-7023
▁თარგმ	-7024
▁ვერაფერს	-7025
▁განვითარებული	-7026
ml	-7027
ლარ	-7028
▁აბაზ	-7029
▁ეტაპი	-7030
▁რისკის	-7031
▁აეროპორ	-7032
▁გრძელვადი	-7033
▁ტემპერატურა	-7034
ყარა	-7035
არიან	-7036
▁ვხედავთ	-7037
▁გამოიყენეთ	-7038
▁ფეხბურთელი	-7039
ეტს	-7040
აროთ	-7041
კავა	-7042
▁გმი	-7043
ულობთ	-7044
▁ასეა	-7045
▁კბილ	-7046
▁მუხლი	-7047
▁ფეხით	-7048
▁პირებს	-7049
▁ნიშნები	-7050
▁შემცირდა	-7051
▁შეგრძნება	-7052
▁აღნიშნულია	-7053
▁ჩემპიონატის	-7054
გნოზ	-7055
▁კლუბის	-7056
▁დაყრდნობით	-7057
of	-7058
ри	-7059
გადას	-7060
▁დანამ	-7061
▁მინისტრ	-7062
▁სთავაზობს	-7063
▁მმართველობის	-7064
ili	-7065
▁ეკა	-7066
აზრება	-7067
▁კორპორ	-7068
▁მშრალი	-7069
▁სტუდენტი	-7070
▁გადაწყვეტილებით	-7071
▁იაფი	-7072
▁მოვუ	-7073
პროდუქ	-7074
▁მათზე	-7075
▁მენეჯმ	-7076
▁ხარისხ	-7077
▁სკოლები	-7078
▁კონკრეტულად	-7079
го	-7080
პატ	-7081
▁''	-7082
ელეს	-7083
▁დავრ	-7084
▁ესეც	-7085
▁ყვით	-7086
ტომობი	-7087
▁საგადა	-7088
▁ფაქტია	-7089
▁მაგალითი	-7090
▁რელიგიური	-7091
ესუ	-7092
▁www	-7093
▁ლიმ	-7094
▁ნაღ	-7095
აციით	-7096
▁სურთ	-7097
▁ხერხ	-7098
▁რეკორ	-7099
▁საკონ	-7100
▁ხელები	-7101
▁ინტერვიუ	-7102
▁რეკომენდ	-7103
▁დაბრუნება	-7104
▁უმეტესობა	-7105
▁ადასტურებს	-7106
▁მოქმედების	-7107
ნამ	-7108
ადირ	-7109
წერს	-7110
▁ებრა	-7111
▁მიჰყ	-7112
▁სიუჟ	-7113
▁ისწავ	-7114
▁რამეს	-7115
▁მოხვდა	-7116
▁წევრის	-7117
▁ზამთრის	-7118
▁ტარდება	-7119
sp	-7120
ელმ	-7121
▁დროა	-7122
▁შეტე	-7123
▁ამაში	-7124
▁ბოთ	-7125
▁კოშ	-7126
ლებდა	-7127
▁მარკ	-7128
▁მკაფი	-7129
▁ვაჭრობის	-7130
▁ქირავდება	-7131
ain	-7132
▁sh	-7133
ორმა	-7134
▁ბრე	-7135
ეგატი	-7136
▁დაქვე	-7137
▁ლამაზ	-7138
▁ტურის	-7139
▁ფასად	-7140
▁აპარატ	-7141
▁აღმოჩნ	-7142
▁ქალების	-7143
▁e	-7144
ტიკოს	-7145
▁თავისებ	-7146
▁ურთიერთობ	-7147
▁ტექნოლოგიების	-7148
ჟღ	-7149
ვდი	-7150
ტალ	-7151
▁კოლ	-7152
ზარდოს	-7153
▁საძინ	-7154
▁ევროპულ	-7155
▁კომპოზი	-7156
▁გაავრცელ	-7157
▁საფეხბურთო	-7158
▁სია	-7159
კითხა	-7160
▁გზავ	-7161
▁ციფრული	-7162
▁სტატიაში	-7163
▁ღონისძიებების	-7164
ჩინ	-7165
ჯიბ	-7166
▁Goo	-7167
▁მიმა	-7168
ველობა	-7169
▁დასამ	-7170
▁საპატი	-7171
▁კორონავირუსით	-7172
▁მუნიციპალიტეტ	-7173
ვრე	-7174
ნებით	-7175
პყრობ	-7176
▁მიღებას	-7177
▁ფაქტები	-7178
▁ზუგდიდის	-7179
▁არაერთხელ	-7180
▁განათლებისა	-7181
▁საქართველოსა	-7182
გუფ	-7183
უდის	-7184
ხედე	-7185
▁უში	-7186
▁კვირას	-7187
▁სიმაღლე	-7188
ვიპ	-7189
▁ბმ	-7190
აციაზე	-7191
▁დანერგ	-7192
AL	-7193
▁is	-7194
▁ვან	-7195
▁იურ	-7196
კლუზი	-7197
▁ბატონო	-7198
▁გუნდში	-7199
▁ატარებს	-7200
▁დროულად	-7201
▁მეწარმე	-7202
▁к	-7203
აზრო	-7204
▁ნაზ	-7205
კიდან	-7206
▁გაემ	-7207
▁იმპერი	-7208
▁რუსეთთან	-7209
▁შესაძლებლობების	-7210
sh	-7211
то	-7212
პე	-7213
დიდი	-7214
▁კუბ	-7215
რალური	-7216
▁შემოგ	-7217
▁ნარჩენ	-7218
▁განსაზღვრული	-7219
▁შეიარაღებული	-7220
პტო	-7221
▁იქმ	-7222
▁სარგ	-7223
▁ზუსტი	-7224
ყოველთა	-7225
▁ჰყავდა	-7226
ტომობილო	-7227
უმა	-7228
▁ცოტ	-7229
▁ჰიდ	-7230
▁ხვდება	-7231
▁ვიყავით	-7232
▁უპირველ	-7233
▁სამინისტროში	-7234
ვალოს	-7235
▁ღვიძ	-7236
▁ესაუბ	-7237
▁ქვემო	-7238
▁ვიცოდი	-7239
კურს	-7240
პატიმ	-7241
▁ემუქ	-7242
▁ფულს	-7243
▁imedi	-7244
▁მცდელობა	-7245
▁დამნაშავე	-7246
▁რესურსების	-7247
IN	-7248
ვერს	-7249
▁შევს	-7250
▁სასმელი	-7251
▁მცხოვრებ	-7252
▁საზოგადოებრივ	-7253
ატყ	-7254
▁სჯ	-7255
▁ბორჯ	-7256
▁მასა	-7257
▁ციხე	-7258
▁დახვე	-7259
▁საფას	-7260
▁თავშეს	-7261
▁პედაგო	-7262
▁შეუერთ	-7263
▁მშვიდად	-7264
▁ანგარიშის	-7265
▁დედაქალაქის	-7266
ალზე	-7267
კები	-7268
▁აყენ	-7269
▁მაიკ	-7270
დამხედ	-7271
▁ეკუთვნის	-7272
▁დანაშაული	-7273
▁შეხვედრას	-7274
▁მონიტორინგის	-7275
ზები	-7276
▁ფრი	-7277
▁იმედია	-7278
▁მოთავს	-7279
▁სიმღერ	-7280
▁გეტყვით	-7281
▁ჩვე	-7282
▁წაი	-7283
კურად	-7284
▁გრად	-7285
▁იმყოფებოდა	-7286
▁დანიშვნ	-7287
▁ქართულად	-7288
▁ადამიანთა	-7289
UT	-7290
ურე	-7291
▁მეტს	-7292
▁თავდა	-7293
▁ნიშანი	-7294
▁კეთილდღე	-7295
▁საბრძოლო	-7296
▁გამარჯვებული	-7297
ეკუთ	-7298
უტის	-7299
▁იოს	-7300
▁იკავ	-7301
▁რთულ	-7302
ეკლესი	-7303
ონიდან	-7304
▁კეთილი	-7305
▁x	-7306
მარტ	-7307
▁გური	-7308
▁მოთხ	-7309
▁ექიმის	-7310
▁მაგისტ	-7311
▁გაკეთებული	-7312
▁დასავლეთის	-7313
▁კომპანიების	-7314
▁მდგომარეობას	-7315
▁საავტომობილო	-7316
▁ლობ	-7317
შინია	-7318
▁დასას	-7319
▁ვცხოვ	-7320
▁შვეიც	-7321
▁ამოქმედ	-7322
▁ბაქტერი	-7323
▁საქმიანობას	-7324
იძე	-7325
ნან	-7326
▁აიღო	-7327
▁აღსრულ	-7328
▁ვიზიტის	-7329
are	-7330
უტი	-7331
ვანა	-7332
▁წულ	-7333
▁უცებ	-7334
ვნების	-7335
▁ბატონ	-7336
▁მეფის	-7337
▁კომპეტ	-7338
▁მიიღონ	-7339
▁აღდგენა	-7340
▁განმეორ	-7341
▁მიუთითებს	-7342
ფილ	-7343
▁იშ	-7344
▁ბოკ	-7345
ვიდეო	-7346
ტრიალ	-7347
▁უბრალო	-7348
▁ჰაერის	-7349
ნარ	-7350
▁ფქ	-7351
ახის	-7352
ოლოგ	-7353
▁ქეთ	-7354
▁გაწმ	-7355
▁გრიგოლ	-7356
▁სართულ	-7357
▁გვხვდება	-7358
▁საშვილოსნოს	-7359
უას	-7360
უენ	-7361
რეწვე	-7362
ურნეო	-7363
▁დაუც	-7364
▁ამოცანა	-7365
▁ნანახია	-7366
▁იგეგმება	-7367
▁შეგიძლია	-7368
▁კავკასიის	-7369
▁სასწრაფოდ	-7370
ვრა	-7371
შინგ	-7372
▁ბიძ	-7373
▁მულ	-7374
▁მწყ	-7375
▁სიღ	-7376
▁ტონ	-7377
ვლიან	-7378
▁გაუშ	-7379
▁სოლი	-7380
▁ჯორჯ	-7381
▁რითაც	-7382
▁თორნიკ	-7383
▁უძრავი	-7384
▁ფეხსაც	-7385
▁გაზრდის	-7386
▁გამოკითხ	-7387
▁მამაკაცის	-7388
▁დაფუძნებული	-7389
ide	-7390
▁ვიკიპ	-7391
▁სიხარული	-7392
▁ყოველდღე	-7393
▁ხანდახან	-7394
▁დაუკავშირ	-7395
▁უპირატესობა	-7396
ინგზე	-7397
უციის	-7398
ჭირდა	-7399
ებრივად	-7400
▁მიმზიდ	-7401
▁გამოეხმა	-7402
▁ხასიათის	-7403
▁გამოირჩევა	-7404
▁კონფლიქტის	-7405
არეთა	-7406
უშავე	-7407
▁ბირთ	-7408
▁შეუს	-7409
▁ასწავ	-7410
▁რაიონ	-7411
▁ისედაც	-7412
▁რკინიგ	-7413
▁მაღალია	-7414
▁ადგილები	-7415
▁კაცს	-7416
ტირების	-7417
▁შემსრულ	-7418
▁დაბრუნდა	-7419
▁ჟურნალისტებს	-7420
იქ	-7421
oun	-7422
ოსა	-7423
...]	-7424
▁მუქ	-7425
▁რონ	-7426
ბადის	-7427
რამდე	-7428
ნაციონ	-7429
არჩი	-7430
განს	-7431
▁ჩერ	-7432
ობიარ	-7433
▁ვიფიქ	-7434
▁ოზურგ	-7435
▁შეშფოთ	-7436
▁გამოცემ	-7437
▁დაამატეთ	-7438
▁ჩატარება	-7439
▁პირველადი	-7440
▁გერმანიაში	-7441
WS	-7442
artul	-7443
ფრთხი	-7444
ხსენი	-7445
სახადო	-7446
▁წარმატების	-7447
დონ	-7448
▁am	-7449
▁მზე	-7450
ანები	-7451
ერისი	-7452
ვანია	-7453
წმუნო	-7454
▁გუბერ	-7455
▁მადრი	-7456
▁იმდენი	-7457
▁განზრახ	-7458
▁საყოველთა	-7459
▁უზარმაზარი	-7460
არძ	-7461
ხილოთ	-7462
▁ბრიფ	-7463
▁დაშორ	-7464
▁მუსიკა	-7465
▁ციხეში	-7466
▁მობილიზ	-7467
▁შვილები	-7468
ისე	-7469
ტოვ	-7470
ვაძე	-7471
წონა	-7472
▁დარგ	-7473
▁ჰიპერ	-7474
რომელიც	-7475
▁მიმართავს	-7476
დაა	-7477
▁Un	-7478
ასურ	-7479
▁სოხ	-7480
▁ქსო	-7481
▁გადი	-7482
ლობასთან	-7483
▁ადვოკატი	-7484
▁დეს	-7485
▁ციკ	-7486
▁წუთზე	-7487
▁კარიერ	-7488
▁მანქანის	-7489
▁გარდაცვლილი	-7490
out	-7491
html	-7492
ჩვენი	-7493
ატორები	-7494
▁აღდგენ	-7495
▁ულამაზ	-7496
▁შეცვლის	-7497
▁შემოთავაზ	-7498
▁შეფასებით	-7499
ოსთან	-7500
▁მეხსი	-7501
▁ზაფხულში	-7502
▁მარტივია	-7503
eli	-7504
გრად	-7505
▁ჰოს	-7506
პაგან	-7507
▁ბრინ	-7508
▁მარნე	-7509
ებლობის	-7510
▁მოყვარ	-7511
▁ნეგატი	-7512
▁სანაცვ	-7513
▁შეწყვი	-7514
▁ჩნდება	-7515
▁ნაწილობ	-7516
▁მოსკოვის	-7517
▁დაკავშირებულ	-7518
ith	-7519
▁ლეგი	-7520
▁რეზი	-7521
ისტული	-7522
▁დანახ	-7523
▁სურვი	-7524
▁ქუჩის	-7525
▁მივმართ	-7526
▁წესების	-7527
▁ამცირებს	-7528
▁ინტელექტ	-7529
▁მოწინააღმდეგ	-7530
ფს	-7531
ნაში	-7532
ტომა	-7533
▁გინ	-7534
▁დიდია	-7535
▁ლიბერ	-7536
კონფერენ	-7537
▁!	-7538
არაში	-7539
თავად	-7540
▁გადავიდა	-7541
▁შეფასების	-7542
▁სამინისტრომ	-7543
▁ტელეკომპანია	-7544
▁ღონისძიებები	-7545
ომბ	-7546
▁ილ	-7547
აძლი	-7548
▁მოშორ	-7549
▁ვლადიმერ	-7550
▁ოდენობით	-7551
ემონ	-7552
როსი	-7553
▁ლურ	-7554
▁გაწევ	-7555
▁შემომ	-7556
შროების	-7557
▁კვირიკ	-7558
▁დაიწყოს	-7559
▁მინიმალური	-7560
▁მომხმარებელი	-7561
ლაქ	-7562
▁იცნ	-7563
▁ლაშ	-7564
▁აქცი	-7565
▁ფრაქ	-7566
ასპინძ	-7567
▁დაპირ	-7568
▁მანდა	-7569
▁მებრძ	-7570
▁სილამ	-7571
▁დაინახ	-7572
▁ავტონომ	-7573
▁როლებში	-7574
▁სწავლება	-7575
▁д	-7576
ელსა	-7577
▁მიდგომა	-7578
▁გამყრელი	-7579
▁მომენტში	-7580
▁დაავადებათა	-7581
▁მოქალაქეები	-7582
ურიეთ	-7583
▁მეტრ	-7584
▁წვლილი	-7585
▁მიიღებენ	-7586
ზისი	-7587
ორწინ	-7588
▁გულწრფ	-7589
▁დაასახ	-7590
დღეს	-7591
ობია	-7592
დენის	-7593
ახალის	-7594
რებთან	-7595
▁სკანდა	-7596
▁პლატფორმა	-7597
▁სიახლეები	-7598
▁შემთხვევებში	-7599
თანაც	-7600
შენებ	-7601
▁გვექ	-7602
▁სესხ	-7603
▁მოციქ	-7604
ორგანიზ	-7605
▁ავსტრი	-7606
▁ანალიზ	-7607
▁ტელევიზ	-7608
▁სახლიდან	-7609
▁საგადასახადო	-7610
▁<	-7611
ach	-7612
ფოს	-7613
ცხი	-7614
▁ლინ	-7615
▁სადგ	-7616
▁კონტექს	-7617
▁რეაქცია	-7618
▁შეისწავ	-7619
▁Facebook	-7620
▁გამოვლინდა	-7621
ახლ	-7622
▁ბურთ	-7623
▁ორმა	-7624
დებოდი	-7625
▁პასუხის	-7626
▁Th	-7627
▁ილი	-7628
ეტები	-7629
ტიანი	-7630
▁დეპუ	-7631
▁შუამ	-7632
▁მოსავ	-7633
▁აშკარა	-7634
▁გახარია	-7635
მინისტრის	-7636
▁კონსტრუქ	-7637
▁დაავადებები	-7638
,"-	-7639
ედო	-7640
ზიო	-7641
▁AM	-7642
მოდა	-7643
▁ტრე	-7644
ნაირი	-7645
ფილის	-7646
უმეტეს	-7647
დებოდნენ	-7648
▁დავიწყე	-7649
▁დარჩება	-7650
▁უარყოფით	-7651
▁კონკურსის	-7652
▁შემთხვევის	-7653
ass	-7654
კოლად	-7655
ჩესტერ	-7656
▁მყარი	-7657
ვესტიციო	-7658
▁გადახდის	-7659
▁მიმართებაში	-7660
ль	-7661
კს	-7662
▁იბ	-7663
პარს	-7664
▁ფილმ	-7665
▁მადლი	-7666
▁ჰქვია	-7667
▁ინიციატივით	-7668
აკო	-7669
▁ამოს	-7670
▁ეპიზ	-7671
▁რიგი	-7672
▁ეგვიპ	-7673
▁დახარჯ	-7674
იორ	-7675
წუხებს	-7676
▁სერია	-7677
▁ღვთისმ	-7678
▁კარიერა	-7679
▁შესრულების	-7680
не	-7681
ჰო	-7682
ანით	-7683
ურსი	-7684
ოლური	-7685
▁იესო	-7686
▁კრედი	-7687
▁მისცეს	-7688
▁პროვოკ	-7689
▁უკიდურეს	-7690
▁გარდაცვლი	-7691
shi	-7692
დაკ	-7693
ვნე	-7694
▁კაი	-7695
ენაზე	-7696
▁ებრძ	-7697
▁ჩარე	-7698
▁ჰგავს	-7699
▁მოგზაურობა	-7700
▁პოლიტიკაში	-7701
ზაო	-7702
▁ჭურჭ	-7703
▁ავსტრ	-7704
▁სტრეს	-7705
მოყვარე	-7706
▁გაუგებ	-7707
▁იმუშავ	-7708
▁სიმშვი	-7709
▁არაფერია	-7710
▁დამოკიდებულ	-7711
▁შესაძლებლობები	-7712
▁ყი	-7713
▁დაფარ	-7714
▁დეკორ	-7715
▁იცავს	-7716
▁კარის	-7717
▁მოვლა	-7718
▁სამაგი	-7719
▁კლინიკაში	-7720
▁ინტერვიუში	-7721
▁მოსალოდნელი	-7722
▁საშუალებების	-7723
eg	-7724
ue	-7725
").	-7726
პიკ	-7727
▁დრამ	-7728
▁ცხელ	-7729
▁ფოტოს	-7730
▁დაწესებულება	-7731
▁პრა	-7732
▁საწვ	-7733
▁საფრთხეს	-7734
▁სანაცვლოდ	-7735
▁ქალბატონი	-7736
მემ	-7737
▁Sh	-7738
▁an	-7739
▁ჰომ	-7740
ვედით	-7741
▁იმაში	-7742
▁სხვები	-7743
▁დამსახურ	-7744
▁უძველესი	-7745
▁შენობაში	-7746
▁დაბრუნების	-7747
გმ	-7748
ial	-7749
კორ	-7750
ათან	-7751
ცადეთ	-7752
ვასთან	-7753
▁ტვირთ	-7754
▁თამბაქ	-7755
▁დარბაზში	-7756
,,	-7757
▁ივანე	-7758
▁ჯაფარი	-7759
▁საპასუხო	-7760
▁გამოჯანმრთ	-7761
▁პროცესების	-7762
▁ხელმძღვანელმა	-7763
ox	-7764
ვენტ	-7765
ენტული	-7766
▁მიირთ	-7767
▁ნაციონ	-7768
▁გაიმარჯ	-7769
▁შესაფერისი	-7770
▁ქსოვი	-7771
▁საზღვაო	-7772
▁მილიარდი	-7773
▁ფრთხილად	-7774
აღი	-7775
ამაშ	-7776
▁Tag	-7777
▁სიზ	-7778
ნაირად	-7779
არებული	-7780
▁დემონს	-7781
▁მოხერხ	-7782
▁რეგული	-7783
▁უწოდებენ	-7784
▁წარმოადგენდა	-7785
იკა	-7786
▁სლო	-7787
▁ახლაც	-7788
▁ცერემ	-7789
უმენტის	-7790
▁არასწორ	-7791
▁რჩევები	-7792
▁შოკოლად	-7793
▁მომუშავე	-7794
▁პროპაგან	-7795
▁ყველასთვის	-7796
ld	-7797
ღმ	-7798
პიტ	-7799
ყის	-7800
▁უთხ	-7801
▁პრეპ	-7802
▁ბერძნ	-7803
▁ექიმს	-7804
▁კონტრ	-7805
▁მამის	-7806
▁დაჭრილი	-7807
▁უახლესი	-7808
▁მოსკოვში	-7809
▁ინგლისური	-7810
▁დანიშნულების	-7811
ND	-7812
ორჩ	-7813
დამს	-7814
ხმის	-7815
▁ტრო	-7816
▁უამრავ	-7817
▁მსხვერპლი	-7818
ყა	-7819
ექმ	-7820
▁ღუმ	-7821
ციისა	-7822
რებაში	-7823
▁სტილის	-7824
▁მასალის	-7825
▁მოახერხა	-7826
ორო	-7827
ლობთ	-7828
ვარდა	-7829
ორები	-7830
▁იარაღი	-7831
▁ვერავინ	-7832
▁მილიარდ	-7833
▁სეზონში	-7834
▁ყურადღების	-7835
▁საინვესტიციო	-7836
▁ხელშეკრულება	-7837
("	-7838
▁მიაქ	-7839
▁დაყენ	-7840
▁წერია	-7841
▁წესის	-7842
▁ქონება	-7843
▁აკადემიის	-7844
▁პროფესორი	-7845
▁უმჯობესია	-7846
ჩევს	-7847
▁მდე	-7848
ახლის	-7849
▁იმუნი	-7850
▁მყავს	-7851
▁ფეხზე	-7852
artulad	-7853
▁გაურკვე	-7854
▁ტელევიზი	-7855
▁საკმარისია	-7856
▁დამოუკიდებლად	-7857
▁ტიპ	-7858
▁ეზოში	-7859
ინიშნოს	-7860
▁პარასკ	-7861
▁რეჟიმი	-7862
▁სოფელი	-7863
მინისტრი	-7864
▁დაკარგა	-7865
▁ეპისკოპ	-7866
▁უცხოური	-7867
▁პარლამენტი	-7868
▁შეას	-7869
▁კომუნ	-7870
▁საუბარია	-7871
▁სიტყვებით	-7872
ეე	-7873
იო	-7874
წევდა	-7875
▁ბექა	-7876
▁მოიგო	-7877
▁რკინის	-7878
▁კრიტერი	-7879
▁დეპუტატი	-7880
▁გერმანული	-7881
▁ჩატარდება	-7882
▁სასურველია	-7883
▁ღირებულების	-7884
▁თანამშრომელი	-7885
SA	-7886
დმა	-7887
▁ედ	-7888
▁უყ	-7889
ობდი	-7890
▁სარკ	-7891
▁ალერგი	-7892
▁მიღწევ	-7893
▁კაცობრი	-7894
▁ორგანოს	-7895
▁კომპანიამ	-7896
▁ოპოზიციური	-7897
▁ერთმანეთთან	-7898
▁განსხვავდება	-7899
▁დაპირისპირება	-7900
eti	-7901
უდს	-7902
მაში	-7903
▁დააბ	-7904
▁პალი	-7905
▁ხაზს	-7906
▁აზრის	-7907
▁ზედამხედ	-7908
▁ჯარისკაც	-7909
▁რეგისტრაციის	-7910
ემს	-7911
ენო	-7912
ინში	-7913
ხმარე	-7914
▁გოგი	-7915
▁დიას	-7916
დივართ	-7917
▁ავტოს	-7918
▁რჩევა	-7919
▁უჭერს	-7920
▁Google	-7921
▁სამმართვე	-7922
ле	-7923
პრ	-7924
▁IP	-7925
ისტები	-7926
▁ლიცენ	-7927
▁ახალცი	-7928
▁ვაშინგ	-7929
▁ძნელია	-7930
ემბრიდან	-7931
რებისთვის	-7932
▁მოადგილემ	-7933
▁შესრულება	-7934
▁ჩემპიონთა	-7935
▁დასრულდება	-7936
▁პროკურატურის	-7937
ძო	-7938
▁`	-7939
კარი	-7940
▁com	-7941
▁ახლახ	-7942
▁ღრმად	-7943
▁მაისის	-7944
▁აკონტრო	-7945
▁გამოაცხადა	-7946
III	-7947
▁კუ	-7948
არსი	-7949
ტისა	-7950
▁იატ	-7951
კლამო	-7952
▁ირან	-7953
▁წონა	-7954
▁გულში	-7955
▁კონფი	-7956
▁იდენტი	-7957
▁ხმას	-7958
რობდნენ	-7959
▁მეორეს	-7960
▁კითხვის	-7961
▁სასახლე	-7962
▁პაციენტის	-7963
▁ხელოვნური	-7964
▁მომზადებული	-7965
ოკუპ	-7966
ოფლო	-7967
▁დოზა	-7968
აზღვრო	-7969
რებისა	-7970
▁გადმოს	-7971
▁ირანის	-7972
▁დაჯილდო	-7973
ფხ	-7974
▁mob	-7975
ყვართ	-7976
▁მინერ	-7977
▁ულტრა	-7978
ებულებს	-7979
▁კანონით	-7980
,-	-7981
ory	-7982
▁იაკ	-7983
ველმო	-7984
პოლის	-7985
▁Home	-7986
▁არაკ	-7987
▁გაეც	-7988
▁იმუნ	-7989
წმინდა	-7990
▁დაგვე	-7991
▁პატივს	-7992
▁დარღვევის	-7993
▁ყოველწლიურად	-7994
ვეში	-7995
ლეთა	-7996
ვარის	-7997
▁ქადა	-7998
▁გაგვი	-7999
▁დადგა	-8000
▁გვყავს	-8001
▁მატჩში	-8002
▁დანარჩენ	-8003
▁დაწყების	-8004
ერით	-8005
▁ქობ	-8006
ქვეშა	-8007
არულად	-8008
▁სუსტი	-8009
▁გავიგე	-8010
▁უკანონ	-8011
▁შედეგს	-8012
▁ადგილის	-8013
▁მსხვილი	-8014
▁შეხედულ	-8015
▁განმარტა	-8016
▁სისტემას	-8017
▁გაათავისუფ	-8018
▁გამონაკლის	-8019
▁ტრანსპორტის	-8020
▁ხელისუფლებაში	-8021
არეზ	-8022
▁მხი	-8023
ამერი	-8024
დასავლ	-8025
ინანსო	-8026
▁ცოდნის	-8027
▁ღმერთმა	-8028
▁ზემოქმედ	-8029
▁პოლიციამ	-8030
▁ორგანოების	-8031
▁უზრუნველყოფის	-8032
იუ	-8033
ime	-8034
ქცა	-8035
▁ბლოკ	-8036
▁შტაბ	-8037
▁ვუყურ	-8038
▁მაშინაც	-8039
▁წარმოქმ	-8040
▁მარგველა	-8041
ტიზ	-8042
▁ჯილდო	-8043
▁ჯგუფში	-8044
▁გამოჩნდება	-8045
▁გამოეხმაურა	-8046
▁შეტყობინება	-8047
თუმ	-8048
ფასო	-8049
▁თეა	-8050
▁მოთ	-8051
▁ნაჭ	-8052
▁ერთმა	-8053
▁წარმატება	-8054
▁შემადგენლობა	-8055
▁ძე	-8056
▁ლარ	-8057
▁რვა	-8058
▁ომში	-8059
▁სქეს	-8060
▁კლასი	-8061
▁მთელს	-8062
▁სტილი	-8063
▁ანგელო	-8064
▁კილომე	-8065
▁გაძლევთ	-8066
▁კითხვას	-8067
▁სიტყვის	-8068
▁ალექსანდ	-8069
ქო	-8070
ანუ	-8071
ასწორ	-8072
▁პაატა	-8073
▁მისცემს	-8074
▁რაიონის	-8075
▁უცნობია	-8076
▁გამოყენებას	-8077
▁ინტეგრაციის	-8078
▁აღმასრულებელი	-8079
▁თანამშრომლები	-8080
▁საქართველოდან	-8081
იპ	-8082
უხს	-8083
ცეთ	-8084
▁რძის	-8085
▁დავას	-8086
▁საქცი	-8087
▁წევრმა	-8088
ევროპული	-8089
ეკონომიკ	-8090
▁სპეციფი	-8091
▁ათასობით	-8092
▁კითხვები	-8093
▁შედეგებს	-8094
▁ამისათვის	-8095
▁არჩევნებზე	-8096
▁კომერციული	-8097
ert	-8098
აბუთ	-8099
კრიბ	-8100
▁მეხუთ	-8101
▁დაგეგმ	-8102
▁შეამცი	-8103
▁С	-8104
ალავ	-8105
▁მომა	-8106
▁გადაუ	-8107
▁მიაღწი	-8108
▁მფლობელი	-8109
▁ცვლილების	-8110
▁პროგრამების	-8111
▁განთავსებული	-8112
▁მეცნიერებათა	-8113
უმად	-8114
▁სამუდა	-8115
▁ივნისის	-8116
▁ბრალდებით	-8117
▁გაიზრდება	-8118
▁ცხოვრობდა	-8119
▁ოკუპირებულ	-8120
▁საკითხების	-8121
▁უზრუნველყოფა	-8122
▁ბერძ	-8123
▁მოით	-8124
▁მოსმ	-8125
▁ამირან	-8126
▁ტაძრის	-8127
▁აღდგენის	-8128
▁ოქტომბრის	-8129
▁ინტერესების	-8130
▁რეაბილიტაცია	-8131
▁ორგანიზაციები	-8132
ლურ	-8133
ეხსენ	-8134
▁ტელე	-8135
▁ხარვე	-8136
▁სარეკლამო	-8137
▁ამასთანავე	-8138
▁გამარჯვების	-8139
ენტმა	-8140
ტებზე	-8141
▁ეშმა	-8142
▁ისლამ	-8143
▁ჩვენც	-8144
▁საშინელ	-8145
▁მისაღწევად	-8146
აკვირ	-8147
▁მზარ	-8148
▁შვედ	-8149
▁ადვილი	-8150
▁კომისია	-8151
▁სუბიექტ	-8152
▁თავისუფლად	-8153
რელი	-8154
▁ჩემო	-8155
▁გამოშვ	-8156
▁შარშან	-8157
▁ბუნების	-8158
▁სპეციალურ	-8159
▁შინაარსის	-8160
▁Net	-8161
▁Pro	-8162
▁VPN	-8163
მუშავ	-8164
▁ვერცხ	-8165
ებულიყო	-8166
▁ძალები	-8167
▁მოვლენა	-8168
▁ნაწილია	-8169
▁კატასტრო	-8170
▁ინტერნეტი	-8171
▁მშვენიერი	-8172
▁%	-8173
▁ჩაუტ	-8174
▁წულუკი	-8175
▁მშობიარ	-8176
▁ერთგვარი	-8177
▁საჭიროებს	-8178
]]	-8179
ზონ	-8180
▁დაუმ	-8181
▁კოდი	-8182
▁მარილი	-8183
▁მესმის	-8184
▁მიიღეთ	-8185
▁ქრისტე	-8186
▁ჯავახი	-8187
▁მივხვდი	-8188
▁ქვეყნებს	-8189
▁კომპანიები	-8190
▁პრობლემებს	-8191
old	-8192
გონი	-8193
ლერი	-8194
▁რძე	-8195
▁მავნე	-8196
▁ტურში	-8197
▁აღწევს	-8198
▁ფილმში	-8199
▁ფიზიკურ	-8200
▁უფლებები	-8201
▁ჭეშმარიტ	-8202
▁მიმოხილვა	-8203
სად	-8204
ვრების	-8205
▁ვიზიტი	-8206
▁იხილეთ	-8207
▁გადახდა	-8208
▁მენსტრუ	-8209
▁რესურსი	-8210
▁სტუმარი	-8211
▁შეიძლებოდა	-8212
▁შემოსავალი	-8213
არიის	-8214
▁თემის	-8215
ბარსელო	-8216
▁მიზანს	-8217
▁აბიტური	-8218
ED	-8219
ib	-8220
არც	-8221
ეთმა	-8222
▁ანს	-8223
ღიზიან	-8224
შაბათს	-8225
▁ვსაუბ	-8226
▁იაპონ	-8227
▁ღმერთს	-8228
▁ვუთხარი	-8229
▁კრიზისი	-8230
▁პროგნოზ	-8231
▁გაზრდილი	-8232
▁საფრანგეთში	-8233
▁:)	-8234
ლავი	-8235
▁ხილ	-8236
კარგი	-8237
რებზე	-8238
▁წილი	-8239
▁ლეგენ	-8240
▁მეუფე	-8241
▁წაკითხ	-8242
▁წარუდგ	-8243
▁ინსტრუქ	-8244
▁მიიღებთ	-8245
▁პროექტს	-8246
▁რეცეპტი	-8247
▁აკეთებენ	-8248
▁ისრაელის	-8249
▁ჟურნალისტი	-8250
▁ობ	-8251
▁ჩე	-8252
ტატის	-8253
▁აქვეყ	-8254
▁ფაქტს	-8255
▁ფასები	-8256
▁ფორმატ	-8257
▁არცერთი	-8258
▁მიღწევა	-8259
▁შეხვედრები	-8260
▁სასწავლებელი	-8261
▁მემკვიდრეობის	-8262
▁იწ	-8263
▁ბუშ	-8264
▁ჭამ	-8265
რიმინ	-8266
▁ხატი	-8267
ებასაც	-8268
▁დონალდ	-8269
▁პრაქტიკული	-8270
▁განსაზღვრავს	-8271
კოვი	-8272
▁წაგ	-8273
▁შენგ	-8274
▁ცალი	-8275
▁დამამ	-8276
▁კურორ	-8277
▁ხშირი	-8278
კვეთილი	-8279
▁გაბრაზ	-8280
▁მიდგომ	-8281
▁დამკვიდ	-8282
▁იმოქმედ	-8283
ат	-8284
რგ	-8285
ოსო	-8286
ფიქრ	-8287
▁ძუძ	-8288
▁სარჩ	-8289
▁მოუწოდა	-8290
დაქტირება	-8291
▁აისახება	-8292
▁საფრთხის	-8293
▁შეკითხვა	-8294
▁გადაცემის	-8295
თით	-8296
▁კე	-8297
▁იორ	-8298
▁მიქ	-8299
▁ელენე	-8300
დებოდეს	-8301
▁გაკვეთ	-8302
▁მომხრე	-8303
▁ქმედება	-8304
▁მოცემული	-8305
▁მოცულობა	-8306
▁უმასპინძ	-8307
▁გჭირდებათ	-8308
▁სუს	-8309
ვებია	-8310
▁გააფ	-8311
▁მიწა	-8312
▁მოედ	-8313
▁გააქტი	-8314
▁ოდესმე	-8315
▁ქართველმა	-8316
▁ლიტერატურა	-8317
▁მოულოდნელად	-8318
anc	-8319
მეც	-8320
ოლში	-8321
▁თაღ	-8322
▁მობ	-8323
▁პომ	-8324
ნელის	-8325
იშვილი	-8326
▁წვენი	-8327
▁ჯგუფს	-8328
▁მოტივა	-8329
▁ავტომობი	-8330
▁ჟურნალის	-8331
▁საზღვრის	-8332
▁მხარდამჭერ	-8333
ite	-8334
▁მიდი	-8335
▁მკურნ	-8336
ლობების	-8337
▁მოხარშ	-8338
▁გრძნობა	-8339
▁დასასრულ	-8340
იი	-8341
ტვირ	-8342
ყვნენ	-8343
▁ხელთ	-8344
▁გამოცდილების	-8345
.:	-8346
რც	-8347
ატლან	-8348
ობდეს	-8349
▁ზუგდიდ	-8350
▁მისაღები	-8351
დევ	-8352
კერ	-8353
▁IS	-8354
▁ვუს	-8355
ვემდებ	-8356
▁უშლის	-8357
▁დეკლარ	-8358
▁ამბობდა	-8359
▁გიორგის	-8360
▁კლასიკური	-8361
▁მუსიკალური	-8362
ლოა	-8363
ღეს	-8364
▁ერა	-8365
▁თას	-8366
▁კაზ	-8367
▁პიკ	-8368
▁დაან	-8369
▁ბიურო	-8370
▁დაგრო	-8371
▁ჩემზე	-8372
▁გამზირ	-8373
▁გუბერნ	-8374
▁ვარიან	-8375
▁გახსნის	-8376
▁ფილოსოფი	-8377
▁კორონავირუსი	-8378
▁პრესკონფერენ	-8379
––	-8380
ზიდა	-8381
▁ართ	-8382
▁თეთრ	-8383
▁[...]	-8384
▁კვება	-8385
▁მერია	-8386
▁დაცვას	-8387
▁საღამო	-8388
▁შეასრულა	-8389
▁ეფექტურად	-8390
▁მშობლების	-8391
ны	-8392
ვეთა	-8393
მეტრი	-8394
▁მოძღ	-8395
▁კოსმოს	-8396
▁დისკუსი	-8397
▁სიმღერა	-8398
▁ტრენინგ	-8399
▁სტატუსის	-8400
▁ტერიტორიის	-8401
უძღ	-8402
ესია	-8403
▁ბონ	-8404
▁ქერ	-8405
▁ნადი	-8406
▁სისხლი	-8407
▁ჰუმანი	-8408
▁დამონტაჟ	-8409
▁მარცხენა	-8410
▁გაავრცელა	-8411
ang	-8412
ave	-8413
არხ	-8414
▁ქუჩა	-8415
ეკლესიო	-8416
▁როგორია	-8417
▁პერსონაჟ	-8418
▁დაამარცხა	-8419
▁დაწყებამდე	-8420
▁დემოკრატიის	-8421
▁თანამშრომლობა	-8422
pl	-8423
▁←	-8424
act	-8425
ხვე	-8426
ერვი	-8427
სთან	-8428
Press	-8429
ცემას	-8430
▁გართ	-8431
▁სუნი	-8432
ვარდნა	-8433
▁აქტიურ	-8434
▁ხედავს	-8435
▁იტალიის	-8436
▁მიმართული	-8437
ოა	-8438
▁ძმ	-8439
არიმ	-8440
ელიძე	-8441
▁მოძი	-8442
ლებები	-8443
▁სერგე	-8444
ყვარულო	-8445
▁მუცლის	-8446
▁ტერმინ	-8447
▁ენერგია	-8448
▁ზედმეტად	-8449
▁კობახიძე	-8450
▁ინიციატივა	-8451
▁სამართლიანი	-8452
BC	-8453
ვდეს	-8454
უმინ	-8455
▁სხი	-8456
▁სოკო	-8457
▁არეში	-8458
▁ნიმუშ	-8459
▁ბრაზილი	-8460
▁ქიმიური	-8461
ens	-8462
ირის	-8463
ვალით	-8464
მიმდე	-8465
▁ნაკვეთ	-8466
▁ისტორიას	-8467
▁იქნებიან	-8468
▁საყვარელ	-8469
▁აგრძელებს	-8470
▁აღემატება	-8471
ჯამ	-8472
▁ზელ	-8473
▁დავუ	-8474
▁თევზ	-8475
▁მღვდელ	-8476
▁სინდრო	-8477
▁მკვეთრად	-8478
▁მშვიდობიანი	-8479
▁ეც	-8480
წვია	-8481
▁ყუთ	-8482
მატის	-8483
▁ფილტ	-8484
▁არხის	-8485
▁წყლით	-8486
▁მიზეზით	-8487
თანამშრომ	-8488
▁მუშაობენ	-8489
▁მწვრთნელ	-8490
▁კამპანიის	-8491
▁ხსენ	-8492
▁დრომდე	-8493
▁ინტერი	-8494
▁კენჭის	-8495
▁თანასწო	-8496
▁ადამიანია	-8497
▁ადამიანური	-8498
▁სტანდარტების	-8499
▁უკუ	-8500
▁ჩახ	-8501
▁ინსპ	-8502
▁განაჩ	-8503
▁სამშაბ	-8504
AT	-8505
ok	-8506
ონები	-8507
▁შეაჩ	-8508
ნებოდა	-8509
▁ამზად	-8510
▁გამოკ	-8511
▁მინიჭ	-8512
▁გენდერ	-8513
▁ფიქრობთ	-8514
▁უზენაესი	-8515
▁ინსტიტუტი	-8516
▁პრეპარატი	-8517
▁პროექტები	-8518
▁ტემპერატურ	-8519
▁ჯანმრთელობა	-8520
▁ch	-8521
ეკვა	-8522
ყრის	-8523
ევები	-8524
▁სესი	-8525
▁ხანს	-8526
თქვამს	-8527
▁გვითხ	-8528
▁თევზი	-8529
▁განკარგ	-8530
▁უფლების	-8531
▁მომავლის	-8532
▁მიხედვითაც	-8533
ork	-8534
▁ჰე	-8535
არიშ	-8536
ვალთ	-8537
ნიდა	-8538
ურული	-8539
▁ლარით	-8540
▁ფართოდ	-8541
▁დაცვისა	-8542
▁გვექნება	-8543
▁შეტყობინ	-8544
▁დეტალურად	-8545
▁ოპერაციის	-8546
▁დაეხმარება	-8547
▁დარეგისტრი	-8548
▁მოსწავლეებს	-8549
▁გამოჯანმრთელ	-8550
იში	-8551
▁ზეგ	-8552
ტერის	-8553
▁დედამ	-8554
▁კაცის	-8555
▁ქაღალ	-8556
▁ჰორმონ	-8557
▁ლიდერმა	-8558
▁საწყისი	-8559
▁აჩვენებს	-8560
▁წარმოიდგ	-8561
▁აქტუალური	-8562
▁ქრონიკული	-8563
▁ვითარებაში	-8564
▁თავისთავად	-8565
ყვი	-8566
ანზე	-8567
▁ნაძ	-8568
ტონის	-8569
▁აუდიტორი	-8570
▁ლაპარაკი	-8571
▁აფხაზეთში	-8572
▁ხელმისაწვდომია	-8573
ანეს	-8574
ყიდა	-8575
ელმწიფ	-8576
ომპანი	-8577
▁აბაში	-8578
▁დილის	-8579
▁საიტის	-8580
▁ფილმები	-8581
▁შესასვლ	-8582
▁წაკითხვა	-8583
▁დასაქმების	-8584
▁მომხმარებლებს	-8585
uli	-8586
ეზი	-8587
ტავ	-8588
news	-8589
ინას	-8590
▁აღმა	-8591
▁გამხ	-8592
▁გულს	-8593
▁სამიზ	-8594
▁ცივილი	-8595
▁ადგილებში	-8596
ეთო	-8597
ილებს	-8598
▁ხორბ	-8599
▁ბელარ	-8600
▁იმპერ	-8601
▁რეზოლ	-8602
▁პროვინ	-8603
▁სირთულ	-8604
▁ხელოვნება	-8605
ლსა	-8606
ებშიც	-8607
ვალზე	-8608
წეული	-8609
▁მაცი	-8610
▁ცალკ	-8611
▁ძაღლი	-8612
ლებიდან	-8613
▁გააგრძელ	-8614
▁ვაქცინის	-8615
▁კატეგორია	-8616
▁კრიტიკული	-8617
▁მოთხოვნით	-8618
▁სასტუმროს	-8619
▁უპირველეს	-8620
ice	-8621
▁ვამ	-8622
▁ფულ	-8623
▁ბაღი	-8624
მატური	-8625
▁გურამ	-8626
▁წესრი	-8627
▁გუნდმა	-8628
▁მეგონა	-8629
▁ძვირად	-8630
▁ახასიათ	-8631
▁გრძნობს	-8632
▁საეკლესიო	-8633
▁ეკონომიკისა	-8634
▁სთ	-8635
მოწყ	-8636
▁შეჭ	-8637
ებდეს	-8638
▁გვირ	-8639
▁მოწეს	-8640
▁რბილი	-8641
▁ძალას	-8642
კავშირე	-8643
▁სადღაც	-8644
▁ისახავს	-8645
▁თურქეთში	-8646
▁რევოლუცი	-8647
ევა	-8648
▁[[	-8649
▁ეჭვ	-8650
▁Word	-8651
▁ბედი	-8652
▁დიეტა	-8653
▁წელზე	-8654
▁მუხლით	-8655
დემოკრატი	-8656
▁ზაფხულის	-8657
გუ	-8658
ნოთ	-8659
ეროდ	-8660
▁თხო	-8661
▁ანიჭ	-8662
▁ხდის	-8663
▁კალაძე	-8664
▁ამომრჩევ	-8665
▁ტერორისტ	-8666
ლახ	-8667
არაბ	-8668
▁ნეი	-8669
ნებათ	-8670
▁ხასი	-8671
▁შეფუთ	-8672
▁პროგრეს	-8673
▁კამპანია	-8674
▁ორგანიზმში	-8675
დამო	-8676
▁ჭკუ	-8677
უსთან	-8678
▁მოუხ	-8679
ატების	-8680
ანაირად	-8681
▁პოზიტიური	-8682
▁შეერთებულ	-8683
▁შეხვედრაში	-8684
▁მასწავლებელი	-8685
რისა	-8686
უბუქ	-8687
▁ქვი	-8688
ავსეთ	-8689
▁აფრი	-8690
▁გქონ	-8691
▁ვთხო	-8692
▁საჩი	-8693
▁ვადით	-8694
▁ანსამბ	-8695
▁ჩაატარა	-8696
▁საქონლის	-8697
ere	-8698
დილ	-8699
იდი	-8700
ეტრი	-8701
კანი	-8702
ხართ	-8703
▁კარანტ	-8704
▁სპორტი	-8705
▁მწვრთნელი	-8706
▁მნიშვნელობას	-8707
ბას	-8708
საკ	-8709
აცვლ	-8710
კალი	-8711
ობასა	-8712
▁ბლოგი	-8713
▁კომპიუტ	-8714
ეხსენებათ	-8715
▁მასალები	-8716
▁ნაბიჯები	-8717
▁ტელეფონი	-8718
▁შესწავლა	-8719
▁დედამიწაზე	-8720
▁თანამდებობის	-8721
დდ	-8722
▁მმ	-8723
▁სკამ	-8724
▁ინციდ	-8725
▁სერტი	-8726
▁უწევს	-8727
ალისტური	-8728
▁არარსებ	-8729
▁სისხლძარ	-8730
▁წლისთვის	-8731
▁ვალდებულება	-8732
AN	-8733
მელ	-8734
ცხე	-8735
▁ესწ	-8736
▁აგრო	-8737
▁ჰოსტ	-8738
▁დასაც	-8739
▁გაზრდა	-8740
▁პირველივე	-8741
▁განმარტავს	-8742
▁სრულყოფილი	-8743
ear	-8744
ცედ	-8745
▁მურ	-8746
▁ნედ	-8747
▁ქალებს	-8748
▁ბრენდის	-8749
▁გვჭირდება	-8750
▁სიტუაციაში	-8751
ფეხ	-8752
ორჩი	-8753
▁ეთი	-8754
▁ოკე	-8755
▁გოგოს	-8756
▁იურის	-8757
▁ცეცხლი	-8758
▁ძვ	-8759
ანიძე	-8760
რესად	-8761
▁ითამ	-8762
▁მერმა	-8763
▁გირჩევთ	-8764
▁ისტორიულ	-8765
▁სექტორში	-8766
აგრ	-8767
▁მოლ	-8768
▁უნგრ	-8769
▁გზები	-8770
▁ჩამოთ	-8771
ტორების	-8772
▁ტკბილი	-8773
სამსახურ	-8774
▁დამხმარე	-8775
▁სიკვდილი	-8776
▁აღინიშნება	-8777
▁ოკუპირებული	-8778
▁სპეციალურად	-8779
▁ფსიქოლოგიური	-8780
ON	-8781
ახს	-8782
ზომ	-8783
▁ვაკ	-8784
▁ოპონ	-8785
▁პროგ	-8786
▁ქსელ	-8787
ენების	-8788
▁დააყენ	-8789
▁მოწესრიგ	-8790
▁კომპიუტერული	-8791
▁დაინტერესებული	-8792
ace	-8793
ბარ	-8794
ზში	-8795
საბ	-8796
ჩია	-8797
ენად	-8798
სამე	-8799
ხილის	-8800
▁ღმრთ	-8801
▁ვთქვა	-8802
▁ტაბლე	-8803
▁ვაქცინა	-8804
▁იმპორტი	-8805
▁ფეისბუქ	-8806
▁გაღიზიან	-8807
▁გვერდითი	-8808
▁დაასრულა	-8809
▁დროებითი	-8810
▁მიწოდება	-8811
▁შინაარსი	-8812
__	-8813
ond	-8814
გაში	-8815
▁ნოდა	-8816
▁ვერას	-8817
▁პუბლი	-8818
▁სახეს	-8819
▁უკანა	-8820
▁ეკონომ	-8821
▁ობიექტი	-8822
▁მოახდინა	-8823
▁პასუხობს	-8824
▁აღინიშნოს	-8825
▁დედამიწის	-8826
▁მოთხოვნის	-8827
▁გამოსავალი	-8828
▁სასარგებლოდ	-8829
ove	-8830
უსია	-8831
▁ციხ	-8832
▁გაშვ	-8833
▁ტონა	-8834
▁ავიაკ	-8835
▁განვა	-8836
▁გასაღ	-8837
▁დატოვ	-8838
▁გავლენის	-8839
▁ცალკეული	-8840
ged	-8841
ატერ	-8842
ელოთ	-8843
▁შუქ	-8844
▁ბურთი	-8845
▁ნომინ	-8846
▁პენსი	-8847
▁სახიფ	-8848
▁ჩემმა	-8849
▁იყავით	-8850
▁სესხის	-8851
▁ფუნდამ	-8852
▁ითამაშა	-8853
▁სართული	-8854
▁პოპულარი	-8855
▁სტატიები	-8856
▁დაბადებული	-8857
▁ექსპერტები	-8858
წვარი	-8859
▁წინს	-8860
კვიანი	-8861
▁შვიდი	-8862
▁მედიას	-8863
▁რობერტ	-8864
▁ნეტგაზე	-8865
▁ღმერთის	-8866
▁ხასიათი	-8867
▁ფინანსურ	-8868
▁მასობრივი	-8869
▁მხარდაჭერას	-8870
გურ	-8871
edia	-8872
ავდი	-8873
▁მორგ	-8874
▁ინფორმ	-8875
▁ტექსტი	-8876
▁ჩაატარ	-8877
▁უსამართ	-8878
▁კრიზისის	-8879
▁სარწმუნო	-8880
ქვეშ	-8881
▁ბუჩ	-8882
▁თალ	-8883
▁ბენე	-8884
▁სიგნ	-8885
ational	-8886
▁მარტის	-8887
▁ხარჯზე	-8888
▁ისეთივე	-8889
▁შეძლებთ	-8890
▁შევარდნა	-8891
▁ქართველები	-8892
▁გამოქვეყნდა	-8893
▁დაუპირისპირ	-8894
▁დაფინანსების	-8895
man	-8896
ნევ	-8897
▁ჩაუ	-8898
▁ველი	-8899
▁ზღაპ	-8900
▁ატმოს	-8901
▁ემზად	-8902
▁კლუბი	-8903
▁მოხუც	-8904
▁აპრილის	-8905
▁პუტინის	-8906
▁უშიშროების	-8907
▁ეწინააღმდეგ	-8908
▁კომუნიკაციის	-8909
ექვს	-8910
ტაჟი	-8911
▁ბაჩ	-8912
დებზე	-8913
▁დიაბ	-8914
▁ძლივს	-8915
▁ზონაში	-8916
▁თორნიკე	-8917
▁ყვითელი	-8918
▁ავსტრალი	-8919
▁უკანონოდ	-8920
▁გაგრძელება	-8921
ტუგ	-8922
▁გლუ	-8923
▁ჩეხ	-8924
ლექსი	-8925
ეტების	-8926
▁ინიცი	-8927
▁ნორმა	-8928
▁ქსელი	-8929
▁ჩვენმა	-8930
▁გახარიას	-8931
▁ნათქვამი	-8932
▁სართულზე	-8933
▁შინაგანი	-8934
▁პრევენციის	-8935
▁ინფიცირების	-8936
▁წინასაარჩევნო	-8937
ee	-8938
▁Jun	-8939
▁ლევ	-8940
▁ტაი	-8941
▁სოფი	-8942
▁ანტის	-8943
▁კარაქ	-8944
▁წითელ	-8945
მთავარი	-8946
▁ელოდება	-8947
▁მეუღლეს	-8948
▁ნახვები	-8949
▁ფოტოები	-8950
▁საშუალოდ	-8951
▁სამომავლო	-8952
▁ნაწილობრივ	-8953
▁წარმატებას	-8954
▁განცხადების	-8955
▁Cl	-8956
ალბი	-8957
როლი	-8958
უცია	-8959
ავებს	-8960
დებში	-8961
▁დამს	-8962
▁შემს	-8963
▁გვარი	-8964
▁ძალით	-8965
რისთვის	-8966
▁ბუნება	-8967
▁მოგება	-8968
▁დიაგნოს	-8969
▁სასოფლო	-8970
▁ყოველთვი	-8971
af	-8972
▁გეს	-8973
▁კვად	-8974
▁კიბოს	-8975
▁ძილის	-8976
▁ჰოსპიტ	-8977
რებოდნენ	-8978
▁იმსახურ	-8979
▁მშობლებს	-8980
▁კანდიდატის	-8981
▁ტერიტორიული	-8982
ნილ	-8983
ლობამ	-8984
▁გენე	-8985
▁ლტოლ	-8986
დებელი	-8987
▁აღარა	-8988
▁დეზინ	-8989
▁გასართ	-8990
▁შეაფას	-8991
▁შეტ	-8992
▁ძირ	-8993
ოჯახო	-8994
▁შანს	-8995
▁გასაკ	-8996
▁მოვახ	-8997
▁გამომწვე	-8998
▁ვიკიპედია	-8999
▁უკანასკნელ	-9000
EWS	-9001
გეგ	-9002
▁Ex	-9003
▁სვე	-9004
▁ჰიპ	-9005
▁მიმი	-9006
რებოდა	-9007
▁გაბრი	-9008
▁მაგნი	-9009
▁ტრადიცი	-9010
▁უკმარის	-9011
▁რამდენადაც	-9012
▁შენარჩუნება	-9013
tern	-9014
დალი	-9015
საქმ	-9016
▁არტ	-9017
▁კირ	-9018
▁მოჰ	-9019
▁გენი	-9020
▁ექსტრ	-9021
qartulad	-9022
▁დასკვნა	-9023
▁სიტყვას	-9024
▁ინგლისურ	-9025
▁ქვეყნიდან	-9026
▁ტექნოლოგია	-9027
ire	-9028
აკა	-9029
ხიბ	-9030
ტეინ	-9031
მოძრა	-9032
▁ამბი	-9033
▁გიგი	-9034
▁სანთ	-9035
▁უნარ	-9036
▁გინდათ	-9037
▁პირობა	-9038
▁წესრიგ	-9039
▁ხმამაღ	-9040
▁ღვიძლის	-9041
▁მოსამზად	-9042
▁ქვეყნები	-9043
ფიცირებული	-9044
▁სამშობლოს	-9045
ქმა	-9046
▁ცოლ	-9047
ეფონო	-9048
კვევა	-9049
ტიული	-9050
▁გატაც	-9051
▁გმირი	-9052
▁ვნახე	-9053
▁უფალი	-9054
▁შეიტან	-9055
▁კალაძემ	-9056
▁რეიტინგ	-9057
▁ქართლის	-9058
▁გამოფენა	-9059
▁კონსერვა	-9060
ხუ	-9061
ick	-9062
რზე	-9063
წონი	-9064
▁ცეს	-9065
▁არტერი	-9066
▁გაატარ	-9067
▁აფასებს	-9068
▁მუსიკის	-9069
▁ფასების	-9070
▁გამჭვირვა	-9071
▁აკადემიური	-9072
▁მზა	-9073
▁რომა	-9074
▁ტყის	-9075
▁მაღლა	-9076
▁მიღებულ	-9077
▁ემოციური	-9078
▁არანაკლებ	-9079
▁გამოცდილი	-9080
▁En	-9081
ჭირს	-9082
▁ბახტ	-9083
ჯერადი	-9084
▁თარიღ	-9085
▁მოხვედ	-9086
▁ნახშირ	-9087
▁რეალიზ	-9088
▁შეასრულ	-9089
▁გამომცემ	-9090
▁ტკივილის	-9091
▁შემოსავლების	-9092
▁განვითარებისა	-9093
▁დაწესებულების	-9094
pe	-9095
ჯით	-9096
▁ძა	-9097
ამაყ	-9098
ესალმ	-9099
▁მინდ	-9100
▁ქმედ	-9101
▁ზომები	-9102
▁მეხუთე	-9103
▁ელემენტ	-9104
▁მკაცრად	-9105
▁აქვეყნებს	-9106
ჩო	-9107
eba	-9108
ich	-9109
▁მოუტ	-9110
▁ფიქს	-9111
ებლობა	-9112
რებაზე	-9113
▁რომის	-9114
▁სათქმ	-9115
▁აერთიან	-9116
▁მოთხოვნი	-9117
▁ტემპერატურის	-9118
▁განცხადებების	-9119
მწ	-9120
გიზ	-9121
▁ro	-9122
ტელი	-9123
▁სელ	-9124
▁ტატ	-9125
მიდან	-9126
▁ახლად	-9127
▁მეტრი	-9128
▁წერეთ	-9129
▁ადრეული	-9130
ჭირდებოდა	-9131
▁თანმიმდე	-9132
▁ცხინვალის	-9133
▁სამთავრობო	-9134
▁მართლმადიდებელი	-9135
pt	-9136
გრელო	-9137
▁ხნით	-9138
▁სიკეთ	-9139
ფიკაცია	-9140
▁გადაწყ	-9141
▁ვარაუდ	-9142
▁შესვლა	-9143
▁გაუარეს	-9144
▁პოლიცია	-9145
▁საჯაროდ	-9146
▁დასაწყისი	-9147
▁პოზიციაზე	-9148
▁მომზადების	-9149
▁ქვეყნისთვის	-9150
ен	-9151
ანთ	-9152
ქარ	-9153
▁დუ	-9154
კონი	-9155
ობათ	-9156
▁ღვინ	-9157
▁რეალობა	-9158
▁წარმართ	-9159
▁საათამდე	-9160
▁ცხოვრობენ	-9161
▁რეგულარული	-9162
▁საყოველთაო	-9163
▁დამზადებული	-9164
UTC	-9165
▁XX	-9166
ენერ	-9167
▁ფაი	-9168
▁უცხოელი	-9169
▁ფოთლები	-9170
▁გამოიწვევს	-9171
▁უზრუნველყოს	-9172
ет	-9173
ტაფ	-9174
უკის	-9175
▁სიც	-9176
ვლამდე	-9177
▁იოანე	-9178
▁სახლს	-9179
▁დისკრიმინ	-9180
▁სატელეფონო	-9181
▁ვაქცინაციის	-9182
IS	-9183
▁ეგრე	-9184
▁აკაკი	-9185
▁აფრიკ	-9186
▁მამას	-9187
▁საახალ	-9188
▁თავშესაფ	-9189
▁წიგნების	-9190
▁პროცესები	-9191
რედაქტირება	-9192
▁პრეზენტაცია	-9193
▁მნიშვნელობის	-9194
▁დამახასიათებელი	-9195
▁ალა	-9196
ამებრ	-9197
▁ამოი	-9198
▁ჯირკ	-9199
▁ვიყოთ	-9200
▁რეჟიმ	-9201
▁ეკატერ	-9202
▁ფეხები	-9203
▁ლიდერის	-9204
▁დეტალები	-9205
▁j	-9206
▁Ad	-9207
პუნქ	-9208
ამბლე	-9209
ვანმა	-9210
ვდნენ	-9211
▁Read	-9212
▁ბაღის	-9213
▁იქნეს	-9214
▁მერაბ	-9215
▁ნაგებ	-9216
▁შეღავ	-9217
▁შეარჩი	-9218
ოკუპაციო	-9219
▁Georgia	-9220
▁გეგმები	-9221
▁ფინალში	-9222
RO	-9223
ნაკ	-9224
რკო	-9225
უმე	-9226
▁по	-9227
ზრდე	-9228
ფერხ	-9229
▁მთის	-9230
▁ქალმა	-9231
ისტების	-9232
მომარაგ	-9233
უალურად	-9234
▁მიზნების	-9235
▁ორიენტირებული	-9236
▁ადმინისტრაციულ	-9237
▁III	-9238
▁მაჩ	-9239
ადამი	-9240
კითხე	-9241
▁მოდით	-9242
არეგული	-9243
ციასთან	-9244
▁სიგარე	-9245
ფიკაციის	-9246
▁სამაგიეროდ	-9247
▁м	-9248
▁🙂	-9249
▁ეტყ	-9250
ეთისა	-9251
▁ეპარ	-9252
ანიდან	-9253
დამსხმ	-9254
▁გვქონ	-9255
▁პომიდ	-9256
▁უფასოდ	-9257
▁ცეცხლის	-9258
▁ნახევრად	-9259
▁წარსულში	-9260
▁სიცოცხლეს	-9261
▁შემოდგომა	-9262
▁რეგისტრაცია	-9263
▁ხელმძღვანელის	-9264
rom	-9265
რაძე	-9266
▁გლე	-9267
▁გათბ	-9268
▁დააფ	-9269
▁მჯერა	-9270
▁სურდა	-9271
▁დოლარს	-9272
▁ვარდის	-9273
▁მიზნის	-9274
▁საოჯახო	-9275
▁ტაძარში	-9276
▁რუსთავის	-9277
ორა	-9278
ჩნი	-9279
▁მიხვ	-9280
▁ოთარ	-9281
კვირვებ	-9282
▁დაბინძ	-9283
▁მოვუწოდ	-9284
▁სახიფათო	-9285
▁გაწევრიან	-9286
▁მოთხოვნები	-9287
▁წარმოდგენა	-9288
▁მოგზაურობის	-9289
▁ხანგრძლივობა	-9290
ink	-9291
ტეთ	-9292
ალთა	-9293
დევს	-9294
გიული	-9295
▁თურნ	-9296
▁ჩაით	-9297
▁წავე	-9298
აციისა	-9299
ვალყურ	-9300
ირდება	-9301
▁უწოდა	-9302
▁საიმედო	-9303
▁საჭმლის	-9304
▁პატიმრობა	-9305
▁განიხილავს	-9306
▁ევროპარლამ	-9307
ზმს	-9308
▁შამ	-9309
▁ლუკა	-9310
▁მათივე	-9311
▁ასამბლე	-9312
▁ჩვენება	-9313
▁წიგნები	-9314
▁დიზაინის	-9315
▁მოთამაშე	-9316
▁სკოლებში	-9317
▁განიხილება	-9318
▁დამადასტურ	-9319
▁ფსიქოლოგია	-9320
▁სასიყვარულო	-9321
ron	-9322
ჩენს	-9323
▁ღებ	-9324
▁ფეხი	-9325
▁დაუშვ	-9326
▁მოძებ	-9327
▁ქმარი	-9328
ტვირთვის	-9329
▁სიჩქარე	-9330
▁იტალიაში	-9331
▁გამოიყენოს	-9332
▁დაადასტურა	-9333
▁სააკაშვილს	-9334
ტმ	-9335
ail	-9336
ark	-9337
აჩი	-9338
შნა	-9339
ხაზ	-9340
▁გუგ	-9341
▁ერთს	-9342
▁თბილ	-9343
▁ტალღ	-9344
▁უჩვე	-9345
▁ფანტ	-9346
▁თვლის	-9347
▁თაობის	-9348
▁საპირის	-9349
▁საკრებულო	-9350
----	-9351
წერე	-9352
ეთები	-9353
▁More	-9354
მოკრატ	-9355
▁მსჯავ	-9356
▁პორტუგ	-9357
▁ექიმები	-9358
▁სისხლში	-9359
▁გამოსვლა	-9360
▁ნავთობის	-9361
▁დამფუძნებელი	-9362
▁TV	-9363
ვითა	-9364
ხსნა	-9365
▁აქს	-9366
ჭირეთ	-9367
▁საეჭ	-9368
▁თალაკ	-9369
▁საბაჟ	-9370
▁სემინ	-9371
▁სანდრო	-9372
▁ამდენად	-9373
▁ამგვარად	-9374
▁შემოქმედებითი	-9375
ზედ	-9376
ტინ	-9377
წლე	-9378
▁ინფლა	-9379
▁სახურ	-9380
▁სუვერ	-9381
▁შესამ	-9382
გრძნობი	-9383
▁წიგნში	-9384
აზღვრება	-9385
▁მოწყობა	-9386
▁Comments	-9387
▁მაჟორიტარ	-9388
▁ორგანიზმის	-9389
▁de	-9390
▁May	-9391
▁აზრს	-9392
▁დაუკ	-9393
▁იგრძ	-9394
▁იხსენ	-9395
▁შეჯიბ	-9396
▁ვიტყვი	-9397
▁შაქარი	-9398
▁გვერდის	-9399
▁მონაწილ	-9400
▁პარტიას	-9401
▁საუბარში	-9402
▁სამოქმედო	-9403
▁მასშტაბური	-9404
▁კომუნიკაცია	-9405
▁სააკაშვილმა	-9406
▁მოგეხსენებათ	-9407
აჰ	-9408
ულიდან	-9409
▁ჭარბი	-9410
ცნობიერ	-9411
▁ბაზარი	-9412
▁ექნებათ	-9413
▁გავაკეთოთ	-9414
▁ეკლესიაში	-9415
▁აწ	-9416
ინონ	-9417
კოლო	-9418
▁ტახ	-9419
▁პური	-9420
თვისაც	-9421
▁ვითომ	-9422
▁შემქმ	-9423
▁დღიდან	-9424
▁სავარძ	-9425
▁ტაძარი	-9426
▁ხაზგას	-9427
▁ექსპერტ	-9428
▁განწყობა	-9429
▁ემუქრება	-9430
▁თავდამსხმ	-9431
▁განსაზღვრა	-9432
▁გადავწყვიტე	-9433
ame	-9434
ons	-9435
ატს	-9436
ებიანი	-9437
▁შეეხო	-9438
▁გადადის	-9439
ოლოგიურად	-9440
▁მითითებული	-9441
▁ინსტრუმენტი	-9442
▁დაკავშირებულია	-9443
OS	-9444
ла	-9445
ოპ	-9446
ext	-9447
ows	-9448
თეთ	-9449
რენ	-9450
ცდა	-9451
▁IM	-9452
ადეთ	-9453
▁ტრან	-9454
▁შეუფ	-9455
▁მიტრო	-9456
▁ბათუმი	-9457
▁წვდომა	-9458
▁გაიტანა	-9459
▁რეფორმა	-9460
▁ყველანი	-9461
▁შეცვალა	-9462
▁არაჩვეულ	-9463
▁განხილვის	-9464
▁მოკავშირე	-9465
▁სამეგრელო	-9466
▁საუბრობენ	-9467
▁სიტუაციის	-9468
▁ფესტივალი	-9469
▁შეზღუდვები	-9470
▁დაწესებულებაში	-9471
▁ელექტროენერგიის	-9472
ახე	-9473
რთხი	-9474
ტრაქ	-9475
▁ბირ	-9476
▁იუწყ	-9477
▁ცარი	-9478
▁არსად	-9479
▁წარმოს	-9480
▁ხედავთ	-9481
▁კონსულტ	-9482
▁სამიზნე	-9483
▁რეფორმის	-9484
▁სატელევი	-9485
▁პრობლემაა	-9486
▁საუკუნეების	-9487
▁უსაფრთხოება	-9488
▁გადაადგილება	-9489
EN	-9490
ნისა	-9491
უზის	-9492
ურთხ	-9493
▁ენდ	-9494
▁თენ	-9495
ლებად	-9496
საერთ	-9497
▁არქე	-9498
▁ფიქრი	-9499
▁ვირუსი	-9500
▁უცნობი	-9501
▁წარმოგი	-9502
▁გააკეთოს	-9503
▁კუნთების	-9504
▁მაღაზიები	-9505
▁ვებგვერდზე	-9506
▁შემთხვევების	-9507
ock	-9508
მია	-9509
ხმო	-9510
დგება	-9511
▁პენი	-9512
▁ეკრან	-9513
▁ვნახოთ	-9514
▁მოსმენ	-9515
▁მივიღეთ	-9516
▁მუზეუმი	-9517
▁დანაშაულ	-9518
▁ზუგდიდში	-9519
საქართველო	-9520
▁დოკუმენტის	-9521
▁რეკომენდაციები	-9522
aw	-9523
იკის	-9524
მარს	-9525
▁გოლ	-9526
▁მკვ	-9527
▁მოყო	-9528
ეთანხმ	-9529
▁გააკეთოთ	-9530
▁გამსახურ	-9531
▁მცირდება	-9532
უმჯობესებს	-9533
▁სამწუხარო	-9534
▁მიმდინარეობდა	-9535
ros	-9536
ტყო	-9537
▁პე	-9538
ენიჭ	-9539
▁ლომ	-9540
▁ღრუბ	-9541
▁იცოდეთ	-9542
▁ასპარეზ	-9543
▁დაიცვას	-9544
▁ჩინეთში	-9545
▁მოძრაობას	-9546
▁პროდუქცია	-9547
შტ	-9548
გავს	-9549
ღრმავ	-9550
▁ბოროტ	-9551
ებებისა	-9552
▁ადვილია	-9553
▁გადასცა	-9554
▁შექმნილ	-9555
▁თამაშების	-9556
▁შედეგადაც	-9557
▁ჩატარების	-9558
▁მიმართულება	-9559
▁პროკურატურა	-9560
ეთსა	-9561
უსტე	-9562
▁ლოკ	-9563
▁ფუტ	-9564
ზღუდა	-9565
უნაიტ	-9566
▁ერთე	-9567
პირობა	-9568
▁ნახეთ	-9569
▁ღამეს	-9570
▁სტრატეგია	-9571
▁კომფორტული	-9572
▁ნარკოტიკების	-9573
ორბ	-9574
▁ეკრ	-9575
გრესი	-9576
▁გვეს	-9577
▁ყალბი	-9578
▁წამოი	-9579
▁გონება	-9580
▁კატალო	-9581
▁მწერალი	-9582
▁კომპეტენ	-9583
▁პედაგოგი	-9584
▁მრავალფეროვანი	-9585
▁XI	-9586
თიაქ	-9587
ევების	-9588
რედიტო	-9589
▁ანდრე	-9590
▁დაშავ	-9591
ებებთან	-9592
▁მომხდა	-9593
▁მოხსენ	-9594
▁გადახედ	-9595
▁კორპუსის	-9596
▁პოზიციას	-9597
▁ასოციაცია	-9598
▁სიყვარულს	-9599
▁სჭირდებათ	-9600
▁სექტემბრის	-9601
▁ყურადღებით	-9602
▁მომხმარებელთა	-9603
EL	-9604
ტვი	-9605
▁на	-9606
ბეჭდა	-9607
რებად	-9608
რომის	-9609
▁იმედ	-9610
▁სტარ	-9611
ახეთის	-9612
▁ბაღში	-9613
▁დაადგ	-9614
▁ევროპა	-9615
▁კეთდება	-9616
▁უფროსის	-9617
▁თამაშობს	-9618
▁სტუდიები	-9619
▁დაუდასტურ	-9620
▁საპატრიარქოს	-9621
აიას	-9622
არჯიშ	-9623
▁ბები	-9624
▁ასეთია	-9625
▁სერვერ	-9626
▁მოამზად	-9627
▁სერიოზულად	-9628
ლელი	-9629
▁თათ	-9630
აკვეთი	-9631
ობისას	-9632
პრესნი	-9633
▁წერდა	-9634
▁შესრულებული	-9635
რაზე	-9636
▁ჩაც	-9637
▁ბასი	-9638
▁დააგ	-9639
▁დიდად	-9640
▁სასაცი	-9641
▁რუსეთმა	-9642
▁პროექტში	-9643
▁ჩემპიონი	-9644
▁პარტიების	-9645
▁სამზარეულოს	-9646
▁პარტნიორობის	-9647
წა	-9648
ბიო	-9649
ტთან	-9650
▁აქა	-9651
▁ესა	-9652
▁ლით	-9653
▁მეკ	-9654
ოსანი	-9655
▁ნელა	-9656
▁ლურჯი	-9657
▁მსმენ	-9658
▁ხაზის	-9659
▁ანალიზის	-9660
▁ინფექციის	-9661
▁კალათბურთ	-9662
▁კვლევების	-9663
▁წარმოშობის	-9664
▁პერსონალური	-9665
▁სატელევიზიო	-9666
▁კონსტიტუციის	-9667
გობ	-9668
▁ჭავ	-9669
▁ჯაჭ	-9670
დიანი	-9671
ორანდ	-9672
▁გაჭირ	-9673
▁დაინახა	-9674
▁სერიოზულ	-9675
▁ინტენსიური	-9676
შმ	-9677
ბუნ	-9678
ives	-9679
▁უმც	-9680
▁უშვ	-9681
▁ნივთი	-9682
▁რუმინ	-9683
▁სასიკ	-9684
▁აძლიერ	-9685
▁გაფრთხ	-9686
▁ნიშნის	-9687
▁საგანი	-9688
▁წყვილი	-9689
▁უკრაინა	-9690
▁მკურნალი	-9691
▁სავალუტო	-9692
▁კანონპროექტი	-9693
▁მოუს	-9694
რობაში	-9695
▁პოსტს	-9696
▁რწმუნ	-9697
▁მიწაზე	-9698
▁ტოვებს	-9699
▁ფასდაკ	-9700
▁ხეობაში	-9701
ეკუთვნება	-9702
▁სიტყვებს	-9703
▁ესპანეთის	-9704
▁ოპოზიციას	-9705
▁რეაგირება	-9706
ка	-9707
გიჟ	-9708
მალ	-9709
▁არი	-9710
▁ფოკ	-9711
უძნება	-9712
▁თემურ	-9713
ველებმა	-9714
ახალგაზრ	-9715
ფხვ	-9716
▁გლ	-9717
ანთა	-9718
კების	-9719
▁მოემ	-9720
▁ჟანგ	-9721
▁წუთით	-9722
▁უმუშევ	-9723
▁დეტალური	-9724
▁ეთნიკური	-9725
▁ექსკლუზი	-9726
▁არავითარი	-9727
▁დასახელება	-9728
▁ცვლილებებს	-9729
▁გავითვალისწინ	-9730
te	-9731
ხლ	-9732
ics	-9733
ეირ	-9734
ყევი	-9735
ძრავ	-9736
▁ტოლ	-9737
▁შევქმ	-9738
▁განცდა	-9739
▁ჰქონია	-9740
▁სტატიის	-9741
▁გამოავლი	-9742
▁ორგანული	-9743
▁ძვირფასი	-9744
▁აღმოაჩინეს	-9745
▁საკუთრების	-9746
გვი	-9747
ვულ	-9748
ფარ	-9749
ებლო	-9750
▁გექ	-9751
▁გავე	-9752
ერიდან	-9753
▁ბრიუს	-9754
▁შეგრო	-9755
▁ჰიდრო	-9756
▁დაცვით	-9757
▁ოთახის	-9758
▁ერთობლი	-9759
▁მიხარია	-9760
▁სივრცის	-9761
▁სხდომის	-9762
▁ანგარიშს	-9763
▁მიზეზები	-9764
▁პირველმა	-9765
▁სამუდამოდ	-9766
▁პროგრამაში	-9767
▁ორიგინალური	-9768
ari	-9769
გმა	-9770
▁**	-9771
▁IN	-9772
ანაირ	-9773
სხვერპ	-9774
▁სადგურ	-9775
▁სუფრის	-9776
▁გასვლის	-9777
▁მოლოდინი	-9778
▁შემცველი	-9779
▁დასვენება	-9780
▁ევროკავშირი	-9781
▁მონაწილეობდა	-9782
vel	-9783
იცოცხ	-9784
▁ელჩი	-9785
▁მოათ	-9786
რებიან	-9787
▁მოწმე	-9788
▁რონალდ	-9789
▁შეინახ	-9790
▁შესაქმ	-9791
▁ვიქნები	-9792
▁ითხოვენ	-9793
▁მეგობრებს	-9794
▁მოსაზრება	-9795
▁სერვისების	-9796
ina	-9797
რდეს	-9798
სხვა	-9799
ტორო	-9800
▁გრე	-9801
▁ეკი	-9802
▁წიწ	-9803
წერეთ	-9804
▁დები	-9805
▁კახი	-9806
▁სიზმ	-9807
▁ტრაქ	-9808
აფხულო	-9809
▁ბადრი	-9810
▁არგენტ	-9811
▁ოფისში	-9812
▁ბარსელო	-9813
სამეურნეო	-9814
▁ბენეფიცი	-9815
▁შეზღუდვა	-9816
▁მართლმსაჯ	-9817
▁სამმართველოს	-9818
IA	-9819
ადოთ	-9820
რებთ	-9821
▁Arch	-9822
▁ხილი	-9823
▁სიხარ	-9824
▁ანაკლი	-9825
▁მეორედ	-9826
▁მერაბი	-9827
▁თვალებში	-9828
▁ნიადაგის	-9829
▁ფრანგული	-9830
▁დადებითად	-9831
▁თავიდანვე	-9832
▁თავისუფალ	-9833
▁კონკურენტ	-9834
▁მასალების	-9835
▁გაზაფხულზე	-9836
▁განაგრძობს	-9837
▁განსხვავება	-9838
▁თანამდებობაზე	-9839
▁მოლაპარაკებების	-9840
orm	-9841
დღი	-9842
კრა	-9843
▁ვრც	-9844
▁რუბ	-9845
▁ტვი	-9846
▁იპოვ	-9847
▁კინოს	-9848
▁მივაღ	-9849
▁შესან	-9850
დაცვითი	-9851
შვიდობო	-9852
▁ყოფილმა	-9853
▁წარუმატ	-9854
▁მეთოდები	-9855
▁მემორანდ	-9856
▁მისამართი	-9857
▁სრულყოფილ	-9858
▁ულამაზესი	-9859
▁გადაღებული	-9860
▁მოხმარების	-9861
▁სახელწოდებით	-9862
ka	-9863
აგა	-9864
ურჩ	-9865
ძლო	-9866
▁..	-9867
▁დრ	-9868
ენური	-9869
ჩინოს	-9870
▁ნეიტ	-9871
ვებიან	-9872
▁მეტრო	-9873
▁აქციაზე	-9874
▁პიროვნება	-9875
▁წინასწარმეტყ	-9876
▁წარმომადგენელმა	-9877
დისა	-9878
ლონი	-9879
შალა	-9880
▁ღალ	-9881
რთოვან	-9882
▁მეტაბ	-9883
▁დავბრუნ	-9884
▁იურიდიულ	-9885
▁სასწრაფო	-9886
▁კლინიკური	-9887
▁პროტესტის	-9888
▁ივანიშვილმა	-9889
ეკა	-9890
ენთ	-9891
▁ფრე	-9892
▁ზოდი	-9893
▁კალო	-9894
▁მიძღ	-9895
▁მუქი	-9896
▁ჰიგი	-9897
უნარიან	-9898
▁გაცნობა	-9899
▁გემრიელი	-9900
▁ექსპორტი	-9901
▁პრაქტიკა	-9902
▁საკმარის	-9903
სჯ	-9904
ეგო	-9905
რუტ	-9906
▁იეს	-9907
▁ვაჟა	-9908
ექტორი	-9909
ზაციას	-9910
▁ეძებს	-9911
▁გაყალბ	-9912
▁ნათლად	-9913
▁პოზიტი	-9914
▁ბიზნესს	-9915
▁მსახიობ	-9916
▁ხელფასი	-9917
▁კრიტერიუმ	-9918
▁შემოსავლის	-9919
▁თავისუფლებას	-9920
▁შესაძლებლობის	-9921
%,	-9922
მახ	-9923
ტიკი	-9924
▁მილ	-9925
▁სიკ	-9926
აციამ	-9927
ყვანს	-9928
▁ვაჟი	-9929
▁კვან	-9930
▁ხანი	-9931
ათიანი	-9932
▁უარის	-9933
▁მართალი	-9934
▁ტრაგედი	-9935
▁ჩადენილი	-9936
▁დაზიანება	-9937
▁დასაცავად	-9938
▁ინფიცირებულ	-9939
▁ID	-9940
ბები	-9941
უროთ	-9942
▁თერ	-9943
▁ტოპ	-9944
არევი	-9945
▁გაოც	-9946
▁წყვი	-9947
▁უნდათ	-9948
▁ყველი	-9949
▁ვაპირებ	-9950
▁სერვისი	-9951
▁დაკარგვა	-9952
▁განაპირობ	-9953
▁დაკარგული	-9954
▁ავტომატურად	-9955
ер	-9956
▁Pl	-9957
▁სუნ	-9958
ინული	-9959
▁გამე	-9960
▁საზე	-9961
▁დასაკ	-9962
თბილისი	-9963
▁გადანა	-9964
▁დარჩეს	-9965
▁დღეები	-9966
▁ზოდიაქ	-9967
▁WordPress	-9968
▁დამატების	-9969
▁ნეტგაზეთი	-9970
▁პოლიტიკას	-9971
▁მდგომარეობით	-9972
▁კანონმდებლობის	-9973
ფექ	-9974
▁XV	-9975
vili	-9976
ალად	-9977
ოლები	-9978
აციებს	-9979
გარეშე	-9980
სამართ	-9981
▁საკომ	-9982
▁მივიღე	-9983
▁ცეცხლს	-9984
▁გამორჩე	-9985
▁ნოემბრის	-9986
▁სასიცოცხ	-9987
▁მცენარეთა	-9988
▁ბრწყინვალე	-9989
▁მოსწავლეები	-9990
▁გამოქვეყნებული	-9991
isi	-9992
▁ვთ	-9993
▁ტვინ	-9994
▁არომა	-9995
▁დინამ	-9996
▁იგრძნ	-9997
▁ასახავს	-9998
▁მიაჩნია	-9999
▁მუზეუმის	-10000
▁ოლიმპიური	-10001
▁პროცედურა	-10002
▁ინტერნეტში	-10003
▁საოკუპაციო	-10004
▁ტერიტორიების	-10005
▁IV	-10006
ურას	-10007
posts	-10008
რეული	-10009
წყობა	-10010
▁დასაშ	-10011
▁მომატ	-10012
▁ჯიშის	-10013
▁სახელს	-10014
▁ბრალდებ	-10015
▁გაღრმავ	-10016
▁იქმნება	-10017
▁მოსახერხ	-10018
▁უკმაყოფი	-10019
▁საკრედიტო	-10020
▁საფინანსო	-10021
":	-10022
))))	-10023
ველე	-10024
▁გაიღ	-10025
▁შერე	-10026
▁ფლობს	-10027
ებისკენ	-10028
▁ახლავს	-10029
მაყოფილი	-10030
▁მოუწევს	-10031
▁ჰქონდეთ	-10032
აცილებლად	-10033
▁მიტროპოლი	-10034
▁მოქალაქის	-10035
▁სარგებელი	-10036
▁რეგულარულად	-10037
▁საცხოვრებელ	-10038
▁პასუხისმგებელი	-10039
ზნ	-10040
"...	-10041
ოდნე	-10042
▁მიეც	-10043
▁ვიწრო	-10044
ჩვენებს	-10045
▁გასვლა	-10046
▁დარბაზი	-10047
▁მდივანი	-10048
▁დაწერილი	-10049
▁კულტურისა	-10050
▁მიწოდების	-10051
▁ღვთისმშობ	-10052
▁გადამწყვეტი	-10053
▁საპირისპირო	-10054
ჳს	-10055
▁ad	-10056
iews	-10057
▁ოლი	-10058
▁რაკ	-10059
აღმოს	-10060
▁პროს	-10061
არაძემ	-10062
ბურგის	-10063
ორების	-10064
▁კაცმა	-10065
▁ძალაში	-10066
▁ყოვლისა	-10067
▁ტანსაცმელი	-10068
▁თანამშრომლების	-10069
ზას	-10070
მერ	-10071
ტოთ	-10072
ღოთ	-10073
აყენ	-10074
▁ოლქ	-10075
▁ფხვ	-10076
უჯეტო	-10077
▁ვანო	-10078
▁კოსმე	-10079
▁ლოცვა	-10080
▁მანამ	-10081
▁ყარაბ	-10082
▁მზადაა	-10083
▁წერტილი	-10084
▁სპეციალისტი	-10085
სან	-10086
▁ჭამა	-10087
▁პეტრე	-10088
▁სიძულ	-10089
▁ხახვი	-10090
▁ხელახლა	-10091
▁ვალდებულია	-10092
min	-10093
წვა	-10094
▁ბოჭ	-10095
▁ფრთ	-10096
▁მენი	-10097
▁ესტონ	-10098
▁ზოგად	-10099
▁ღილაკ	-10100
▁ნახავთ	-10101
▁ოსეთის	-10102
▁ქათმის	-10103
▁ხმაური	-10104
▁ტრამპის	-10105
▁აღინიშნა	-10106
▁გამოსწორ	-10107
▁კონკურსი	-10108
▁გამოიყენა	-10109
co	-10110
დენა	-10111
▁აუქ	-10112
▁with	-10113
▁მიყვარ	-10114
▁განიცდის	-10115
▁გაგრძელდა	-10116
▁შესაქმნელად	-10117
პმა	-10118
▁ნაყ	-10119
▁ჯიბ	-10120
ალაძე	-10121
ტკიცა	-10122
▁ეხმა	-10123
ულობენ	-10124
▁ჩარჩო	-10125
▁ვარჯიში	-10126
▁შეიძინა	-10127
▁წამყვან	-10128
▁სადაზღვე	-10129
▁ციტირების	-10130
ფაქ	-10131
▁ცხრა	-10132
▁წვრთ	-10133
ირებულ	-10134
ელმწიფო	-10135
ღესასწა	-10136
▁ბიჭები	-10137
▁გადასა	-10138
▁მელიას	-10139
▁გენდერული	-10140
▁მედიცინის	-10141
ანგრძ	-10142
▁დროთა	-10143
▁ჩუმად	-10144
ურებული	-10145
▁იღებდა	-10146
........	-10147
▁ადანაშა	-10148
▁დაწყება	-10149
▁აწარმოებს	-10150
▁ვარსკვლავი	-10151
▁ლიტერატურის	-10152
▁Ph	-10153
იანის	-10154
რებენ	-10155
უსები	-10156
▁მრჩე	-10157
▁ნანა	-10158
გრესის	-10159
▁სამაგ	-10160
▁ზრუნვა	-10161
▁სამივე	-10162
▁ბრძოლას	-10163
▁მკვეთრი	-10164
▁ოცნებას	-10165
▁დამატება	-10166
▁მზადდება	-10167
▁ბრიფინგზე	-10168
▁გასაგებია	-10169
▁მეცნიერება	-10170
▁გამჭვირვალე	-10171
▁მონაწილეები	-10172
▁წყალმომარაგ	-10173
▁განვითარებაში	-10174
ზოგ	-10175
ისურ	-10176
ტრონ	-10177
▁ქოლ	-10178
▁დაუთ	-10179
▁მამამ	-10180
▁წინათ	-10181
▁გახსოვ	-10182
▁შეამოწმ	-10183
▁სამსახურს	-10184
გოს	-10185
ლოგი	-10186
▁ოფიც	-10187
ებოდით	-10188
▁ესენი	-10189
▁სადმე	-10190
▁ბევრმა	-10191
▁თვალით	-10192
აღმოსავლ	-10193
▁გვაძლევს	-10194
აკვირველია	-10195
▁პროცენტით	-10196
▁დაფინანსება	-10197
aa	-10198
ical	-10199
დიას	-10200
ღვთა	-10201
ტიდან	-10202
▁ჰარმონი	-10203
▁არგუმენტ	-10204
▁მოთხოვნებს	-10205
▁სისტემების	-10206
▁კონფერენცია	-10207
ლეი	-10208
აცრუ	-10209
ვნას	-10210
ინგს	-10211
ესტაფ	-10212
ოთერა	-10213
▁ლორწ	-10214
▁მიზნ	-10215
ქმნება	-10216
▁იმასაც	-10217
▁შვილებს	-10218
▁საკითხთა	-10219
▁ინოვაციური	-10220
▁pro	-10221
ნახევ	-10222
▁ანას	-10223
▁ორმო	-10224
ხილავთ	-10225
▁ლამის	-10226
▁მოწამ	-10227
▁ზეგავლ	-10228
▁Sputnik	-10229
▁განახლება	-10230
▁განკუთვნი	-10231
▁საქმიანობაში	-10232
გრი	-10233
დური	-10234
ვარა	-10235
წონთ	-10236
ტიკას	-10237
▁მოზრ	-10238
აღნიშნ	-10239
ინიშნა	-10240
▁ახსნა	-10241
▁მესამ	-10242
▁სტიქი	-10243
ვანაირად	-10244
▁დაამთავ	-10245
▁შეძლებენ	-10246
▁დამცველის	-10247
▁გამოცხადდა	-10248
▁ივანიშვილს	-10249
▁რეფორმების	-10250
▁ახალგაზრდების	-10251
▁მოლაპარაკებები	-10252
ცით	-10253
ღიმა	-10254
ჩინო	-10255
ებზეც	-10256
▁ტკივი	-10257
▁დავითა	-10258
▁პატივი	-10259
▁ეწოდება	-10260
▁კახეთის	-10261
▁შერჩევა	-10262
▁გაემგზავ	-10263
▁სპორტსმენ	-10264
▁მცენარეული	-10265
▁ფესტივალის	-10266
ნაწ	-10267
▁ქა	-10268
ადოდ	-10269
ტერო	-10270
▁ვთქვი	-10271
▁სპარს	-10272
წმინდის	-10273
▁საბაჟო	-10274
▁ზამთარში	-10275
▁მექანიზმი	-10276
▁დაკმაყოფილ	-10277
▁სტატისტიკა	-10278
▁ცხოველების	-10279
▁საავადმყოფოს	-10280
ნაო	-10281
აგდო	-10282
ვასა	-10283
▁იზოლა	-10284
▁მიანი	-10285
▁პრინც	-10286
▁მშვიდი	-10287
▁აღებული	-10288
▁მოცემულ	-10289
▁ავტომანქ	-10290
▁საკითხებს	-10291
▁ტელეფონის	-10292
▁გამოყოფილი	-10293
▁მონაწილეობით	-10294
ნუ	-10295
avi	-10296
მოგ	-10297
ურზე	-10298
▁ცრუ	-10299
▁აქაც	-10300
ხსნება	-10301
▁გამოე	-10302
▁იმედგ	-10303
▁სველი	-10304
▁ფასის	-10305
▁ცვლის	-10306
▁შეფერხ	-10307
▁მოითხოვ	-10308
▁ექვემდებ	-10309
▁შექმნილია	-10310
▁ბრალდებული	-10311
▁გავრცელება	-10312
▁სადღესასწა	-10313
▁სამშვიდობო	-10314
EC	-10315
▁Nov	-10316
▁ლავ	-10317
ალთან	-10318
თუმცა	-10319
მაცევ	-10320
▁აკრი	-10321
▁ბიჭს	-10322
ფინანს	-10323
▁აცნობ	-10324
▁გახსენ	-10325
▁ერთგულ	-10326
▁ნაცნობ	-10327
▁პაკეტი	-10328
▁აჭარაში	-10329
▁მაღაზია	-10330
▁ვერცხლის	-10331
▁თავდასხმ	-10332
▁პაციენტს	-10333
▁ფიქრობენ	-10334
გრძნობიარე	-10335
▁წარადგინა	-10336
უზე	-10337
ალათ	-10338
▁ფრჩ	-10339
▁ანდა	-10340
▁რატი	-10341
▁უთან	-10342
კავკასი	-10343
▁მოკლეს	-10344
ალიზებული	-10345
▁განხორციელდება	-10346
დანი	-10347
ევში	-10348
▁დღი	-10349
▁მტრ	-10350
ჩევენ	-10351
▁ძრავ	-10352
▁ასტრო	-10353
▁დისციპ	-10354
▁წნევის	-10355
▁საუკუნე	-10356
▁სტიმული	-10357
▁ჩანაწერი	-10358
▁სტრუქტურა	-10359
▁უკიდურესად	-10360
▁წინადადება	-10361
▁ასაცილებლად	-10362
▁განყოფილების	-10363
▁დამადასტურებელი	-10364
▁იჯ	-10365
▁ხსნ	-10366
▁ღიად	-10367
ურებას	-10368
▁მსვლე	-10369
▁ნოდარ	-10370
▁გაცემა	-10371
▁კონვენ	-10372
▁ალკოჰოლი	-10373
▁დადგენილ	-10374
▁სოფლებში	-10375
▁გაყიდვების	-10376
▁კომპანიებს	-10377
▁მონაწილეებს	-10378
▁М	-10379
ლოკ	-10380
▁be	-10381
ეტური	-10382
მოკლე	-10383
ტურის	-10384
▁ქურთ	-10385
▁შერი	-10386
▁შორე	-10387
▁დამწყ	-10388
▁აყენებს	-10389
▁ბუნებრივ	-10390
▁სათავეში	-10391
▁შემდგომში	-10392
▁აერთიანებს	-10393
▁სტუდენტებს	-10394
▁თანამშრომლებმა	-10395
▁б	-10396
▁ფაზ	-10397
▁ხვრ	-10398
ზავნა	-10399
ლინის	-10400
▁ზიანი	-10401
▁უარეს	-10402
▁შეექმ	-10403
▁თამაშს	-10404
▁იურისტ	-10405
▁გერმანია	-10406
▁დაათვალი	-10407
▁ვითარების	-10408
▁ზედაპირზე	-10409
▁გრძელვადიანი	-10410
გენი	-10411
ესმა	-10412
ფილაქ	-10413
▁ოქრო	-10414
▁საბი	-10415
დასთან	-10416
▁ახდენ	-10417
▁ფარული	-10418
▁განკუთვნილი	-10419
▁სიამოვნებით	-10420
▁Air	-10421
▁თხოვ	-10422
▁იდენტ	-10423
▁რეფერ	-10424
▁ბურჯან	-10425
▁ნაშრომ	-10426
▁განაწილ	-10427
▁კმაყოფილი	-10428
▁საახალწლო	-10429
▁წარდგენილი	-10430
▁მონაწილეობს	-10431
▁ალტერნატიული	-10432
▁გადაადგილების	-10433
▁გაფრ	-10434
▁სურნ	-10435
▁ხმით	-10436
▁აზიის	-10437
▁დომინ	-10438
▁მიყენ	-10439
▁შეუქმ	-10440
▁ოპტიმი	-10441
▁პრემია	-10442
▁ქცევის	-10443
▁დაქვეით	-10444
▁კომპენს	-10445
▁კონგრეს	-10446
▁კვლევები	-10447
▁შტატებში	-10448
▁ავტომობილი	-10449
▁ღარიბაშვილი	-10450
net	-10451
ტოკ	-10452
რობი	-10453
ჩქარ	-10454
▁this	-10455
▁ტყვი	-10456
▁ნერვი	-10457
▁გამოიკ	-10458
▁თევზის	-10459
▁მზარდი	-10460
▁სიღრმე	-10461
▁იმართება	-10462
▁კონფლიქტი	-10463
▁პორტუგალი	-10464
▁სანაპიროზე	-10465
▁დაზიანებული	-10466
რკ	-10467
ver	-10468
▁ვნ	-10469
იაზე	-10470
▁გაჟ	-10471
▁გაჭ	-10472
ემატა	-10473
▁კობა	-10474
▁მიმღ	-10475
▁საკო	-10476
▁შეუშ	-10477
მატებს	-10478
▁რიგით	-10479
▁ხილის	-10480
▁ორმაგი	-10481
▁ფანტას	-10482
▁ფულადი	-10483
▁მართავს	-10484
▁აქტივობა	-10485
▁რატომღაც	-10486
▁სიტყვების	-10487
▁სქესობრივი	-10488
▁სადღესასწაულო	-10489
▁მოჭ	-10490
▁ნუგ	-10491
რულოს	-10492
▁დათო	-10493
▁ტენდ	-10494
▁წერა	-10495
▁ვებსა	-10496
▁საბუთ	-10497
▁დაჯგუფ	-10498
▁მსუბუქ	-10499
▁აუდიტის	-10500
▁მოსწონს	-10501
▁ტურიზმი	-10502
▁პროფესიულ	-10503
▁ავტონომიური	-10504
გირ	-10505
▁უსას	-10506
▁ვიყენ	-10507
▁იმუშა	-10508
▁მკვიდ	-10509
▁კედლის	-10510
▁ხალხმა	-10511
▁ვებსაიტ	-10512
▁საპატიო	-10513
▁განიხილა	-10514
▁ფუნქციის	-10515
▁ბიზნესმენ	-10516
▁ვარსკვლავ	-10517
▁იმედგაცრუ	-10518
▁მშვიდობის	-10519
▁რესურსები	-10520
▁შეიცვლება	-10521
wit	-10522
ტყა	-10523
▁ზა	-10524
▁Jan	-10525
ღვევა	-10526
▁კრის	-10527
▁ათწლე	-10528
▁პატარ	-10529
▁ჟანრი	-10530
▁გავლით	-10531
▁სითბოს	-10532
▁შეგრძნ	-10533
▁შეხება	-10534
▁ყურძნის	-10535
▁განპირობ	-10536
▁დამცველი	-10537
▁გადაუხადა	-10538
▁რეაბილიტაციის	-10539
";	-10540
OR	-10541
ix	-10542
რევ	-10543
კაში	-10544
ღვინ	-10545
▁კიბ	-10546
▁ოსტ	-10547
გონია	-10548
პატიჟ	-10549
▁შენც	-10550
კომფორ	-10551
▁ასაკი	-10552
▁იერუს	-10553
▁აქსესუ	-10554
▁შეიცვა	-10555
▁ჭავჭავ	-10556
▁ჟურნალი	-10557
▁ხანდაზმ	-10558
▁ეფუძნება	-10559
▁ვგულისხმ	-10560
▁ანგარიშში	-10561
enc	-10562
ტრში	-10563
▁გვს	-10564
▁იჯდა	-10565
▁კოტე	-10566
▁მრევ	-10567
▁სისულ	-10568
▁გადავა	-10569
▁მუდმივ	-10570
▁საეჭვო	-10571
▁შენთან	-10572
▁თანახმა	-10573
▁შესვლის	-10574
▁აღიარებს	-10575
▁შეწყვეტის	-10576
▁შემცირების	-10577
▁რასაკვირველია	-10578
ნს	-10579
ნეთ	-10580
შუპ	-10581
მებით	-10582
▁კოვი	-10583
▁მელი	-10584
▁მოგე	-10585
▁მსაჯ	-10586
▁იყავი	-10587
▁ქულით	-10588
▁აღრიცხ	-10589
▁მომენტ	-10590
▁კვადრატ	-10591
▁მივიღოთ	-10592
▁ტკივილს	-10593
▁ქარხანა	-10594
▁ალიანსის	-10595
▁სახეობის	-10596
▁სტუმრებს	-10597
▁სურსათის	-10598
▁უმთავრესი	-10599
▁ქალიშვილი	-10600
▁მოულოდნელი	-10601
▁პიროვნების	-10602
▁შემთხვევაშიც	-10603
▁სპეციალისტები	-10604
ult	-10605
რთა	-10606
▁ეზო	-10607
▁ლად	-10608
ვალოთ	-10609
▁სტიპ	-10610
▁მოგონ	-10611
▁საღებ	-10612
▁ყიდვა	-10613
▁შრომა	-10614
▁ხსნის	-10615
ალიზმის	-10616
▁იქცევა	-10617
▁საწოლი	-10618
▁ხორცის	-10619
▁დააკავა	-10620
▁დამსაქმ	-10621
▁ხარჯების	-10622
▁არასწორად	-10623
▁აძლიერებს	-10624
▁განახორცი	-10625
▁ახასიათებს	-10626
▁შეუძლებელი	-10627
იგი	-10628
კლას	-10629
▁გელ	-10630
▁წაშ	-10631
ვრებს	-10632
პატრი	-10633
▁გაუძ	-10634
▁შუალ	-10635
ალიზმი	-10636
▁გაეცნ	-10637
▁ენები	-10638
▁ნდობა	-10639
▁ხედვა	-10640
▁რელიგი	-10641
▁სოლიდა	-10642
▁სექტორი	-10643
▁შეკრები	-10644
პოლიტიკური	-10645
▁გამომუშავ	-10646
▁მაღაზიაში	-10647
▁მოცულობის	-10648
▁ზურაბიშვილი	-10649
▁ორგანიზებით	-10650
▁პროფესიონალი	-10651
▁ჯანმრთელობას	-10652
▁კანონმდებლობით	-10653
cl	-10654
ood	-10655
აზო	-10656
იკო	-10657
ლიც	-10658
▁ხუმ	-10659
რთხილ	-10660
დარული	-10661
▁უხერხ	-10662
▁კვერცხი	-10663
▁შედეგია	-10664
▁არასასურ	-10665
▁ლიდერები	-10666
▁მოცემულია	-10667
▁დარღვევები	-10668
▁სტუდენტები	-10669
▁გაუმჯობესება	-10670
▁დიპლომატიური	-10671
ძა	-10672
ბალ	-10673
▁ქო	-10674
გრაფ	-10675
ფეის	-10676
წვან	-10677
▁რაღა	-10678
▁უდაბ	-10679
ველება	-10680
▁გაირკ	-10681
▁ფარის	-10682
▁ვიდეოს	-10683
▁სულიერ	-10684
▁წლიური	-10685
▁დეპრესი	-10686
▁იცოდნენ	-10687
▁მსჯავრდ	-10688
▁გაცემული	-10689
▁სურვილის	-10690
▁ეკატერინე	-10691
▁შთამბეჭდა	-10692
▁თავდასხმის	-10693
▁ინტერესები	-10694
▁ბავშვებისთვის	-10695
შს	-10696
გაზ	-10697
ადრა	-10698
შევი	-10699
▁ზაქ	-10700
▁იას	-10701
დგენთ	-10702
დექსი	-10703
ულისა	-10704
▁იქით	-10705
▁ჰექტ	-10706
▁უყვართ	-10707
▁ჩინური	-10708
▁მდივნის	-10709
▁ქვეპუნქ	-10710
▁შეძენის	-10711
▁თავგადას	-10712
▁თირკმლის	-10713
▁ფარმაცევ	-10714
▁დეკემბრის	-10715
▁მკვლელობა	-10716
▁სიყვარულით	-10717
▁განახორციელა	-10718
oy	-10719
ათუ	-10720
ვოდ	-10721
პით	-10722
ენში	-10723
დანის	-10724
მანის	-10725
ცავენ	-10726
▁ქვის	-10727
indows	-10728
ენიანი	-10729
მოქმედ	-10730
▁ბინის	-10731
▁ნატურ	-10732
▁სტრას	-10733
▁წვრილ	-10734
ედნიერო	-10735
ენოვანი	-10736
მაგალით	-10737
▁გზავნი	-10738
▁აღმოფხვ	-10739
▁ნერვული	-10740
▁პალიტრა	-10741
▁რუსთავი	-10742
▁ჰოლანდი	-10743
▁აღიარება	-10744
▁განაცხად	-10745
▁დაიწყებს	-10746
▁კავშირში	-10747
▁მადრიდის	-10748
bl	-10749
na	-10750
ოთე	-10751
ტობ	-10752
ყოთ	-10753
▁მჭ	-10754
▁ლენ	-10755
▁მიტ	-10756
უსების	-10757
▁იზრუნ	-10758
▁მოსამ	-10759
▁სანახ	-10760
▁არმიის	-10761
▁შაქრის	-10762
▁სიფრთხი	-10763
▁ფორმატში	-10764
▁ღირსეული	-10765
▁დაკავების	-10766
ეკონომიკური	-10767
▁აეროპორტში	-10768
▁ხელშეწყობა	-10769
▁პარლამენტმა	-10770
▁შთაბეჭდილება	-10771
!..	-10772
ოლოს	-10773
როდა	-10774
▁ფოლ	-10775
▁ეპოქ	-10776
▁ფასე	-10777
▁წყვე	-10778
▁ხალი	-10779
▁მაგრად	-10780
▁ფქვილი	-10781
▁შენთვის	-10782
▁ზოდიაქოს	-10783
▁ინვესტორ	-10784
▁წევრებმა	-10785
▁სამკურნალოდ	-10786
▁მომხმარებლების	-10787
▁z	-10788
აჭარ	-10789
▁ბეტ	-10790
▁რაზ	-10791
▁სადი	-10792
ჯანსაღ	-10793
▁სტამბ	-10794
▁შეშუპ	-10795
▁გამოკვლ	-10796
▁მოდელის	-10797
▁გამოგზავ	-10798
▁პროტესტი	-10799
ინტერპრესნი	-10800
▁პროგრამული	-10801
▁მოწყობილობა	-10802
▁სახელმწიფომ	-10803
▁მომსახურებას	-10804
▁უფლებამოსილების	-10805
უწ	-10806
▁@	-10807
▁as	-10808
მისი	-10809
▁გომ	-10810
▁კუპ	-10811
▁პავ	-10812
▁ლიგა	-10813
ტაციას	-10814
▁ანტიკ	-10815
▁გავიგ	-10816
▁თამაზ	-10817
▁შემოღ	-10818
ლებების	-10819
▁ვისწავ	-10820
▁გათამაშ	-10821
▁ყარაბაღ	-10822
▁სკოლების	-10823
▁ტექნიკის	-10824
▁ამტკიცებს	-10825
▁მოვლენებს	-10826
▁ყვავილები	-10827
▁ყველანაირი	-10828
▁შუბ	-10829
▁აქეთ	-10830
▁დააჯ	-10831
▁მენტ	-10832
ვალიერ	-10833
▁თასის	-10834
▁ტრაგი	-10835
▁ადეკვა	-10836
▁რწმენა	-10837
▁სხვისი	-10838
▁აქცენტი	-10839
▁უჩვეულო	-10840
▁გამოთქვა	-10841
▁ვფიქრობთ	-10842
▁კარიერის	-10843
▁ბავშვებში	-10844
▁გადანაწილ	-10845
▁მაჟორიტარი	-10846
▁მარკეტინგის	-10847
ва	-10848
ლებო	-10849
ონით	-10850
▁App	-10851
▁პენ	-10852
▁ქობულ	-10853
▁ბაზაზე	-10854
▁ბიუროს	-10855
▁გაიარა	-10856
▁კონტეინ	-10857
▁ძალადობა	-10858
▁ყოველდღიურ	-10859
▁ავტომობილის	-10860
▁გამორიცხული	-10861
▁ევროკავშირში	-10862
ლენ	-10863
▁შვ	-10864
დიდან	-10865
ეობის	-10866
ვალეს	-10867
შირია	-10868
▁ბარბ	-10869
▁დოლი	-10870
▁ახალშ	-10871
▁დეტალ	-10872
▁პურის	-10873
▁გამოჩნ	-10874
▁წახალის	-10875
▁ხარჯები	-10876
▁დააჭირეთ	-10877
▁ეკლესიას	-10878
▁ვერაფერი	-10879
▁კულტურულ	-10880
▁ნახევარში	-10881
▁ფიზიკურად	-10882
▁მგრძნობიარე	-10883
▁პროკურატურამ	-10884
▁გათავისუფლების	-10885
როცა	-10886
ციაა	-10887
▁დეი	-10888
▁კოც	-10889
▁გაას	-10890
▁სოლო	-10891
▁ფრონ	-10892
▁დაარღ	-10893
▁გაზეთი	-10894
▁ექიმმა	-10895
▁გაკეთდა	-10896
▁გადასვლა	-10897
▁გამზირზე	-10898
▁გამოირჩე	-10899
▁შემოვიდა	-10900
▁დაამტკიცა	-10901
▁ეხმაურება	-10902
▁მოქალაქეს	-10903
▁რისთვისაც	-10904
▁უსიამოვნო	-10905
▁ჭეშმარიტი	-10906
▁კომპიუტერი	-10907
▁მეცნიერები	-10908
▁მონიტორინგი	-10909
▁ახალგაზრდები	-10910
ეგობ	-10911
წერო	-10912
▁ხიდ	-10913
ვირის	-10914
ულებით	-10915
▁დავიც	-10916
ედნიეროდ	-10917
სხვერპლა	-10918
▁იშვიათი	-10919
▁მენეჯერი	-10920
▁მიმაჩნია	-10921
▁სექტემბერში	-10922
▁თანამშრომლებს	-10923
▁Pre	-10924
ტებში	-10925
ყვება	-10926
▁წვეთ	-10927
ევდნენ	-10928
▁სქესის	-10929
▁ულტრაბ	-10930
▁ფერადი	-10931
▁ამბების	-10932
▁თურქეთი	-10933
▁ჯანმრთელი	-10934
▁სადაზღვევო	-10935
▁მკურნალობას	-10936
▁საავადმყოფო	-10937
▁განისაზღვრება	-10938
ხიზ	-10939
▁Pr	-10940
ტანჯ	-10941
უსზე	-10942
შედეგ	-10943
▁აღება	-10944
▁დაზოგ	-10945
▁მოგვე	-10946
ფრთოვან	-10947
▁საგზაო	-10948
▁სხეულს	-10949
▁სასკოლო	-10950
▁სიარული	-10951
განაცხადა	-10952
▁ბრძანება	-10953
▁გახარიამ	-10954
▁მამაკაცს	-10955
▁მექანიზმ	-10956
▁პრინციპი	-10957
▁ჯგუფების	-10958
▁პარლამენტს	-10959
▁მოსალოდნელია	-10960
US	-10961
ადრე	-10962
ებლით	-10963
ვანის	-10964
ნებში	-10965
ყოფად	-10966
▁თარგ	-10967
▁ნაპირ	-10968
▁საექს	-10969
▁დაუჭირა	-10970
▁მიზანშე	-10971
▁პარიზში	-10972
▁ბირთვული	-10973
▁კილოგრამ	-10974
▁შერჩეული	-10975
▁დაასახელა	-10976
▁იდენტიფიცი	-10977
▁კატეგორიის	-10978
▁ახალგაზრდული	-10979
▁გამოცდილებას	-10980
ბენ	-10981
სიპ	-10982
▁ქი	-10983
ტურად	-10984
▁რაზე	-10985
▁მექსი	-10986
▁სამჯერ	-10987
▁ნივთები	-10988
▁გაამახვი	-10989
▁თქვენთან	-10990
▁არჩევანის	-10991
▁კომპლექსი	-10992
▁გაძლიერება	-10993
▁კომპანიაში	-10994
▁გადასახადის	-10995
▁შეზღუდვების	-10996
▁\	-10997
ong	-10998
ეტმა	-10999
ლუატ	-11000
ტერს	-11001
ითხოთ	-11002
ტისთვის	-11003
▁ენერგო	-11004
▁ეტაპის	-11005
▁წლიანი	-11006
▁ავიაბილ	-11007
▁სიმძლავ	-11008
▁დაფარული	-11009
▁უცხოეთში	-11010
▁ოზურგეთის	-11011
▁განაცხადეს	-11012
▁პოტენციალი	-11013
▁მწარმოებელი	-11014
▁რედაქტირება	-11015
▁ურთიერთობას	-11016
se	-11017
uk	-11018
▁П	-11019
▁უთ	-11020
ვანს	-11021
ხლის	-11022
▁Dec	-11023
ანური	-11024
ველას	-11025
▁აურიეთ	-11026
▁მსახურ	-11027
▁რუსთავ	-11028
▁სცენაზე	-11029
▁კონტაქტი	-11030
▁ექსპორტის	-11031
▁მომღერალი	-11032
▁გამოხატვის	-11033
▁ნივთიერებების	-11034
gaz	-11035
▁ჩო	-11036
orld	-11037
ენტზე	-11038
ერული	-11039
▁დალი	-11040
ვრიდან	-11041
იტანეს	-11042
▁გემოვნ	-11043
▁ნაჩვენ	-11044
▁ავტორის	-11045
▁სომხური	-11046
მაგალითად	-11047
▁ინგლისის	-11048
▁დისკომფორ	-11049
▁პარასკევი	-11050
▁რეკომენდი	-11051
▁დარწმუნდით	-11052
▁გამოყენებულ	-11053
▁მახასიათებლები	-11054
გორი	-11055
ეცით	-11056
ორში	-11057
▁უხე	-11058
▁ცუდ	-11059
ენსიო	-11060
ვირდა	-11061
პრემი	-11062
▁იმსჯ	-11063
▁სტეფ	-11064
▁გინეკ	-11065
▁ფეხის	-11066
▁არცერთ	-11067
▁არსებით	-11068
▁მოგვითხ	-11069
▁აღკვეთის	-11070
▁კონფიდენ	-11071
▁მოხმარება	-11072
▁მოქალაქეთა	-11073
▁მატერიალური	-11074
▁წარმოიდგინეთ	-11075
atch	-11076
ტილი	-11077
რიგად	-11078
▁მიემ	-11079
▁მოსი	-11080
როდესაც	-11081
▁დაფიქს	-11082
▁იპოვეს	-11083
▁კრიპტო	-11084
▁საქმეა	-11085
▁სამეფოს	-11086
▁უნივერს	-11087
▁რეიტინგი	-11088
▁შვილების	-11089
▁განიხილეს	-11090
uro	-11091
უტა	-11092
ამად	-11093
▁ზეთ	-11094
▁მოიც	-11095
▁ქორე	-11096
▁ჰოდა	-11097
დღიანი	-11098
▁რამის	-11099
▁სმარტ	-11100
▁ფენომ	-11101
▁ფილიპ	-11102
ექტორის	-11103
▁თენგიზ	-11104
▁მტკიცე	-11105
▁ჟურნალ	-11106
▁საწყის	-11107
▁არჩეული	-11108
▁გახდნენ	-11109
▁ერთეული	-11110
▁იკავებს	-11111
▁კადრები	-11112
▁მორწმუნ	-11113
▁ოჯახური	-11114
▁მოპოვება	-11115
▁პირობებს	-11116
მაყოფილებს	-11117
▁მიუღებელია	-11118
▁მსახიობები	-11119
ays	-11120
ელსი	-11121
რაში	-11122
▁ელე	-11123
▁ჩოგ	-11124
▁ხათ	-11125
▁ძმის	-11126
▁სხვას	-11127
▁ბოდიში	-11128
▁ბოლნის	-11129
▁იცოდეს	-11130
▁ცნობის	-11131
▁მზადყოფ	-11132
▁მიღწეული	-11133
▁მოვალეობის	-11134
▁განახლებული	-11135
▁განყოფილებაში	-11136
▁ინვესტიციების	-11137
AM	-11138
!!!!	-11139
მენს	-11140
მოწმ	-11141
ულოდ	-11142
agram	-11143
▁Inst	-11144
▁ზალკ	-11145
▁მიუნ	-11146
რობაზე	-11147
▁კალცი	-11148
▁გამძლე	-11149
▁მოთმინ	-11150
▁სიგრძე	-11151
▁აპარატი	-11152
▁ირლანდი	-11153
▁კარგავს	-11154
▁სიტუაცი	-11155
▁გაკეთდეს	-11156
▁ბოსტნეული	-11157
▁ესწრებოდნენ	-11158
▁კანონპროექტ	-11159
▁დეპარტამენტი	-11160
ру	-11161
ფსი	-11162
დერი	-11163
მელს	-11164
ურდა	-11165
მარტი	-11166
▁ლიდე	-11167
▁სცემ	-11168
ზებული	-11169
ომპლექ	-11170
▁გასათ	-11171
▁კრისტ	-11172
▁მამაჩ	-11173
▁ძნელი	-11174
▁წამოს	-11175
▁ექიმთან	-11176
▁თავადაც	-11177
▁წინადად	-11178
▁თვალებით	-11179
აბილიტაციო	-11180
▁გასაკვირი	-11181
▁მოახდინოს	-11182
▁სამშობლოში	-11183
▁pm	-11184
▁ახს	-11185
თქვენ	-11186
▁News	-11187
▁გაის	-11188
▁მოდა	-11189
▁რაში	-11190
▁სოსო	-11191
▁თემას	-11192
▁მიუძღ	-11193
▁უმძიმ	-11194
▁ფოთის	-11195
▁ცილის	-11196
▁გამრავ	-11197
▁ერთგული	-11198
▁იუწყება	-11199
▁ჭკვიანი	-11200
▁იტალიური	-11201
▁ცერემონი	-11202
▁საბედნიეროდ	-11203
▁ადამიანისთვის	-11204
მიმ	-11205
olog	-11206
წიოს	-11207
▁დეგ	-11208
▁ეუთ	-11209
▁იოგ	-11210
▁რჩე	-11211
▁გრამი	-11212
▁კიბერ	-11213
▁მარეგული	-11214
▁მთავარმა	-11215
▁გაიზარდოს	-11216
▁რკინიგზის	-11217
▁დაზიანების	-11218
▁კონსტანტინე	-11219
▁ცნობიერების	-11220
▁ხელმძღვანელობით	-11221
ენკ	-11222
▁De	-11223
▁ვქ	-11224
ერეფ	-11225
ზური	-11226
ლული	-11227
▁კოდ	-11228
ვრება	-11229
▁პასი	-11230
ვლელად	-11231
განტური	-11232
შვილთან	-11233
▁მეტროს	-11234
▁დაცულია	-11235
▁კანონში	-11236
▁მიდიოდა	-11237
▁ჯგუფები	-11238
▁გააკეთებს	-11239
▁კათოლიკოს	-11240
▁მოადგილის	-11241
▁პროგრამას	-11242
▁დაბრუნებას	-11243
▁დადასტურებული	-11244
IT	-11245
hem	-11246
ორგი	-11247
რომი	-11248
▁გვამ	-11249
დებული	-11250
▁ვადის	-11251
▁ინჟინ	-11252
▁საზეი	-11253
ასვლელი	-11254
▁სახეობა	-11255
▁უწოდებს	-11256
▁შეადგენ	-11257
ორდინაციო	-11258
▁მცენარის	-11259
▁ჩატარდეს	-11260
▁ანგარიშზე	-11261
▁შეიცვალოს	-11262
▁მეტყველებს	-11263
▁ფაკულტეტის	-11264
▁პაციენტების	-11265
▁ძალაუფლების	-11266
▁By	-11267
adze	-11268
ეკეთ	-11269
ვლია	-11270
უნდი	-11271
▁ევა	-11272
▁მყიდ	-11273
ვებისა	-11274
▁კუთხე	-11275
▁მიხვდა	-11276
▁ინარჩუნ	-11277
▁ქეთევან	-11278
▁რელიგიის	-11279
▁შეხვდნენ	-11280
▁გამარჯობა	-11281
▁თვითმკვლე	-11282
те	-11283
კით	-11284
ნური	-11285
▁დაეთ	-11286
▁იყოთ	-11287
თქმული	-11288
▁გაიგო	-11289
▁ციხის	-11290
▁გასაუბ	-11291
▁რელიგია	-11292
▁წინადადებ	-11293
▁განვითარებულ	-11294
▁დგ	-11295
ზული	-11296
მზად	-11297
ფუნქ	-11298
▁დება	-11299
▁სტრი	-11300
▁ფრაზ	-11301
ჩევნია	-11302
▁რეპუტ	-11303
▁ფირფი	-11304
▁ტაბულა	-11305
თბილისის	-11306
▁ამრიგად	-11307
▁ფორმაში	-11308
▁თავისებურ	-11309
▁მანქანაში	-11310
▁ვკითხულობთ	-11311
▁რომელთაგან	-11312
ile	-11313
ოლია	-11314
▁მრგ	-11315
დიოდი	-11316
▁ამათ	-11317
▁დათმ	-11318
▁მოისმ	-11319
▁ძაღლის	-11320
▁სახელად	-11321
▁ვცხოვრობ	-11322
▁მაგივრად	-11323
▁მადლობას	-11324
▁მინისტრს	-11325
▁სრულდება	-11326
▁ხმამაღლა	-11327
▁ვფიქრობდი	-11328
▁ინფექციური	-11329
▁მცენარეები	-11330
▁აუმჯობესებს	-11331
▁გაერთიანება	-11332
▁ორგანიზებული	-11333
▁გაითვალისწინეთ	-11334
▁ინტელექტუალური	-11335
да	-11336
ana	-11337
les	-11338
ონიმ	-11339
ცემი	-11340
▁შებ	-11341
ყოფაც	-11342
▁თვეა	-11343
▁რატო	-11344
▁ქეთი	-11345
▁ჯობია	-11346
▁ასპექტ	-11347
▁განიხი	-11348
▁ლარამდე	-11349
▁ქუთაისი	-11350
▁პრემიერი	-11351
▁გამოცდები	-11352
▁თავდასხმა	-11353
▁მარნეულის	-11354
▁ბრიტანეთში	-11355
▁საფრანგეთი	-11356
▁მხარდამჭერი	-11357
▁მასწავლებლის	-11358
▁მედიკამენტების	-11359
IC	-11360
▁al	-11361
ალიკ	-11362
▁Apr	-11363
წერეს	-11364
▁თასი	-11365
▁მარა	-11366
▁მივე	-11367
▁კუჭის	-11368
▁მიდრე	-11369
▁ბინაში	-11370
▁მიაქცი	-11371
▁დაკრძალ	-11372
▁უყვარდა	-11373
▁ლონდონის	-11374
▁ადგილების	-11375
▁მითუმეტეს	-11376
▁სარგებლობს	-11377
▁ანაზღაურება	-11378
უმზე	-11379
▁აგი	-11380
▁უძღ	-11381
ლევან	-11382
▁გაარ	-11383
ურობით	-11384
▁დალაგ	-11385
▁მოლდო	-11386
▁პუნქტი	-11387
▁საშინაო	-11388
▁მიიჩნევენ	-11389
▁შესთავაზა	-11390
▁აღნიშნავენ	-11391
▁ინტერესებს	-11392
▁კომპონენტი	-11393
▁საზოგადოებამ	-11394
▁გარკვეულწილად	-11395
!-	-11396
სულ	-11397
▁აძლ	-11398
▁დუბ	-11399
▁დასწ	-11400
▁წამი	-11401
აზროვნ	-11402
▁საწარ	-11403
▁შეავს	-11404
▁შეგვე	-11405
▁სხვებს	-11406
▁მათგანს	-11407
▁დასუფთავ	-11408
▁ვიტამინი	-11409
▁ნაკრებში	-11410
▁საპენსიო	-11411
▁დეპუტატის	-11412
▁მოსამსახურ	-11413
▁გამოვიყენოთ	-11414
▁გამოსვლისას	-11415
▁კრიმინალური	-11416
▁სასარგებლოა	-11417
უარ	-11418
▁//	-11419
▁თიბ	-11420
ტანას	-11421
▁წვენ	-11422
gazeti	-11423
პროტეს	-11424
▁გაშენ	-11425
▁მზერა	-11426
▁რეზერ	-11427
▁იუნაიტ	-11428
▁ნიშნით	-11429
▁ევროკომ	-11430
▁მოხალის	-11431
▁მეზობელი	-11432
▁სომხეთში	-11433
▁ქსოვილის	-11434
▁ტესტირება	-11435
▁ულტრაბგერ	-11436
▁მონაცემებს	-11437
▁ჩემპიონატი	-11438
▁დასაქმებული	-11439
▁მოთხოვნების	-11440
ко	-11441
та	-11442
კიმ	-11443
ყვა	-11444
▁გაწ	-11445
ვებენ	-11446
ვლითი	-11447
მაინც	-11448
ოლებს	-11449
▁უილი	-11450
▁ჩანთ	-11451
▁ჰოლი	-11452
▁მძლავ	-11453
▁სირცხ	-11454
▁ფანტა	-11455
▁ფართი	-11456
▁შენახ	-11457
ელებთან	-11458
▁ეთანხმ	-11459
▁ეტყობა	-11460
▁ოფისის	-11461
▁სასტიკ	-11462
▁დამცავი	-11463
▁ძვირადღ	-11464
▁წერილში	-11465
▁პროფილაქ	-11466
▁ერთმანეთი	-11467
▁მიზეზების	-11468
▁კონტექსტში	-11469
▁სოციალურად	-11470
▁ბავშვობიდან	-11471
▁გენერალურმა	-11472
▁ჯავახიშვილის	-11473
ins	-11474
ქვი	-11475
წიოთ	-11476
▁Oct	-11477
▁სოკ	-11478
▁უაღ	-11479
ეულად	-11480
საგან	-11481
▁მარია	-11482
▁მოპოვ	-11483
▁პოლიტ	-11484
▁რემონ	-11485
▁ადრეულ	-11486
▁გამარტი	-11487
▁პუნქტის	-11488
▁საოცრად	-11489
▁უთქვამს	-11490
▁კვერცხის	-11491
▁მხარეები	-11492
▁სხვანაირად	-11493
▁თანამდებობა	-11494
▁თავმჯდომარეს	-11495
da	-11496
დიო	-11497
დრი	-11498
ხვი	-11499
იდის	-11500
ტმას	-11501
ლოვან	-11502
რატომ	-11503
ყოფას	-11504
ცემულ	-11505
▁მოექ	-11506
▁წავა	-11507
▁კოლეგ	-11508
▁ყელის	-11509
▁გამონა	-11510
▁ტენდერ	-11511
▁ყოვლად	-11512
▁შარდის	-11513
▁ციკლის	-11514
▁თეატრში	-11515
▁კუთხეში	-11516
▁სპექტაკ	-11517
▁წარდგენ	-11518
▁ჩამოვიდა	-11519
▁საკითხთან	-11520
▁შემოწმება	-11521
"?	-11522
▁В	-11523
ანოს	-11524
ეთზე	-11525
▁ვეს	-11526
▁უეც	-11527
ზების	-11528
▁გუდა	-11529
▁მიუს	-11530
კონტრო	-11531
ლებაში	-11532
▁მანძი	-11533
▁მწარე	-11534
ფიკაციო	-11535
▁თანხას	-11536
▁იქამდე	-11537
▁მთარგმ	-11538
▁არაფრის	-11539
▁ახლახან	-11540
▁კლინიკა	-11541
▁მოგების	-11542
▁ნამდვილ	-11543
▁ჩამონათ	-11544
▁წასვლის	-11545
▁გადაჭარბ	-11546
▁გამოიხატ	-11547
▁შეეძლება	-11548
▁გამოსვლის	-11549
▁წარმოებული	-11550
▁ჩამოყალიბდა	-11551
▁განაპირობებს	-11552
▁მიმართულების	-11553
med	-11554
per	-11555
ილის	-11556
ქმედი	-11557
▁ყავა	-11558
იუვენტ	-11559
▁გიორგ	-11560
▁დავარ	-11561
▁დევიდ	-11562
▁უშუალო	-11563
▁ფრანგი	-11564
▁გამგზავ	-11565
▁ჩვენგან	-11566
▁აპარატის	-11567
▁დავინახე	-11568
▁თამბაქოს	-11569
▁იაპონიის	-11570
▁სინდრომი	-11571
▁ტექნიკურ	-11572
▁აგვისტოში	-11573
▁ვსაუბრობთ	-11574
▁გამოცდების	-11575
▁ნარჩენების	-11576
▁წარმოადგენენ	-11577
კონს	-11578
პილო	-11579
მენის	-11580
ძლება	-11581
▁ბალი	-11582
▁ერეკ	-11583
▁რეის	-11584
▁ცხად	-11585
▁ლარად	-11586
▁ჩანდა	-11587
▁ცოლის	-11588
ლოგიური	-11589
▁რაგბის	-11590
▁ესაუბრა	-11591
▁პენიტენ	-11592
▁ორმხრივი	-11593
▁იძულებული	-11594
▁კონკურსში	-11595
▁პოლონეთის	-11596
▁უჯრედების	-11597
▁მუნიციპალური	-11598
▁საკოორდინაციო	-11599
▁წარმოდგენილია	-11600
ESS	-11601
ღამ	-11602
ence	-11603
აფლა	-11604
თაგან	-11605
▁დილა	-11606
▁კანს	-11607
▁ახსენ	-11608
▁დოზის	-11609
▁მოდერ	-11610
ჩვენება	-11611
▁ამბავს	-11612
▁თვალსა	-11613
▁პუტინი	-11614
▁დაქირავ	-11615
▁საელჩოს	-11616
▁დავიწყეთ	-11617
▁პოლიტოლო	-11618
▁გადამუშავ	-11619
▁კობახიძემ	-11620
▁მშობლიური	-11621
▁გამოხატავს	-11622
▁ძალისხმევა	-11623
▁განსახორციელ	-11624
ბათ	-11625
იას	-11626
▁And	-11627
▁Off	-11628
ანგის	-11629
ყავით	-11630
▁აზარ	-11631
▁ბლოგ	-11632
▁ვისი	-11633
ყვანეთ	-11634
▁მულტი	-11635
▁ტოქსი	-11636
ციონერი	-11637
▁მოაქვს	-11638
▁წონაში	-11639
▁გადაეცა	-11640
▁ბრალდება	-11641
▁პრეტენზი	-11642
▁შეხედვით	-11643
▁გახსოვდეთ	-11644
▁სხვაგვარად	-11645
ino	-11646
უდრო	-11647
▁ტანჯ	-11648
▁ილიას	-11649
▁ნორვე	-11650
▁ზეწოლა	-11651
▁თეატრი	-11652
▁სერგეი	-11653
▁ფორუმი	-11654
▁ჩართვა	-11655
▁აფრიკის	-11656
▁დაარსდა	-11657
▁ვხვდები	-11658
▁თხოვნით	-11659
▁კვლავაც	-11660
▁მაცხოვრ	-11661
▁რაღაცას	-11662
▁ანაკლიის	-11663
▁ექიმების	-11664
▁იერუსალი	-11665
▁ორშაბათი	-11666
▁დეპუტატმა	-11667
▁გაერთიანების	-11668
▁ტერიტორიებზე	-11669
la	-11670
▁თბ	-11671
ომში	-11672
▁საძ	-11673
▁უდა	-11674
ვანძო	-11675
▁ოცდა	-11676
▁ნედლე	-11677
ადგენად	-11678
▁ასობით	-11679
▁გვახსო	-11680
▁ჯგუფმა	-11681
▁მოგცემთ	-11682
▁ინტერპრე	-11683
▁გადაეცემა	-11684
▁სტაბილური	-11685
▁სარეაბილიტაციო	-11686
ჯო	-11687
ერძო	-11688
▁For	-11689
ადენი	-11690
▁იქცე	-11691
▁მოხვ	-11692
▁ნინი	-11693
▁იატაკ	-11694
▁მტერი	-11695
▁წვეულ	-11696
ყოფილია	-11697
▁შედეგის	-11698
▁სავარჯიშ	-11699
▁დაეხმაროს	-11700
▁ნივთიერება	-11701
▁კანონპროექტის	-11702
▁კომუნიკაციების	-11703
ტვ	-11704
ions	-11705
ამია	-11706
დებთ	-11707
ილია	-11708
▁ბას	-11709
▁ეგრ	-11710
▁ხაჭ	-11711
წევენ	-11712
▁ატომ	-11713
▁ჰორმ	-11714
ებიცაა	-11715
პრეზიდ	-11716
▁დერეფ	-11717
▁წინაპ	-11718
▁ეპიზოდ	-11719
▁თვალში	-11720
▁მეექვს	-11721
▁დაასხით	-11722
▁დაპატიმ	-11723
▁ზემოდან	-11724
▁ფორმები	-11725
▁Archives	-11726
▁საკითხია	-11727
▁სინათლის	-11728
▁ტრანსპორ	-11729
▁მოგვითხრობს	-11730
▁შეთანხმებას	-11731
▁დამთავრებული	-11732
▁თანასწორობის	-11733
ло	-11734
უნდ	-11735
▁On	-11736
,...	-11737
ნიის	-11738
შენი	-11739
მეგობ	-11740
ორჩილ	-11741
ჭერით	-11742
▁ვალი	-11743
ძესთან	-11744
▁გვირა	-11745
▁ზეთის	-11746
▁მიმდე	-11747
▁მოკლა	-11748
▁ხანში	-11749
▁აკვარი	-11750
▁დღიური	-11751
▁პოსტის	-11752
▁ცხოველ	-11753
▁ექსპლუატ	-11754
▁დასასრულს	-11755
▁პრემიერის	-11756
▁ბავშვობაში	-11757
▁დაპირისპირების	-11758
ba	-11759
ზით	-11760
▁ჟი	-11761
ბოლო	-11762
ქული	-11763
▁ჟორ	-11764
ვალეთ	-11765
ტრედი	-11766
▁სსიპ	-11767
witter	-11768
▁მიუნხ	-11769
▁ფოლად	-11770
ფიციური	-11771
▁აფთიაქ	-11772
▁განსაც	-11773
▁ივლისის	-11774
▁კლიმატის	-11775
▁მივიღებთ	-11776
▁ჯირკვლის	-11777
▁აგრესიული	-11778
▁სისტემური	-11779
▁აკრძალულია	-11780
▁დაწესებული	-11781
▁პერსონალის	-11782
▁შეთავაზება	-11783
lo	-11784
სთ	-11785
ღია	-11786
დელო	-11787
▁დაჰ	-11788
▁მაქ	-11789
press	-11790
▁ბაგა	-11791
▁ირმა	-11792
▁ფაში	-11793
ობებში	-11794
▁ბაზის	-11795
▁სიცრუ	-11796
გვერდზე	-11797
▁თაღლით	-11798
▁დათანხმ	-11799
▁იანვრის	-11800
▁დიალოგის	-11801
▁ვცდილობთ	-11802
▁გამოხატული	-11803
▁პატრიარქის	-11804
▁სტანდარტული	-11805
▁ეწინააღმდეგება	-11806
▁А	-11807
iss	-11808
ერეს	-11809
ოქსი	-11810
პროფ	-11811
ულნი	-11812
ჯარო	-11813
▁New	-11814
▁რუკ	-11815
ვამდე	-11816
ნილია	-11817
▁განვ	-11818
▁გაუხ	-11819
▁უპრე	-11820
მწვანე	-11821
ულობდა	-11822
ყვანას	-11823
▁დავუშ	-11824
▁აღიარა	-11825
▁გამყიდ	-11826
ასვლელად	-11827
▁დატოვება	-11828
▁იმპერიის	-11829
▁კითხვებს	-11830
▁დადასტურდა	-11831
▁ინტერნეტის	-11832
▁საკუთრებაში	-11833
▁ქრისტიანული	-11834
▁ტექნოლოგიური	-11835
▁{	-11836
ali	-11837
იტაც	-11838
▁აბონ	-11839
▁იწვე	-11840
▁მეცნი	-11841
▁პრესა	-11842
▁ფსიქო	-11843
▁ბაკური	-11844
▁მახლობ	-11845
▁მკაფიო	-11846
▁ჩინეთი	-11847
▁ამერიკა	-11848
▁თურქული	-11849
▁შემწვარი	-11850
▁მარკეტინგ	-11851
▁საპასუხოდ	-11852
▁ყავისფერი	-11853
▁კონფიდენცი	-11854
▁ხარისხიანი	-11855
▁დაინტერესებულ	-11856
▁;	-11857
▁К	-11858
გზის	-11859
რნენ	-11860
▁გრო	-11861
▁შოუ	-11862
iness	-11863
▁სენს	-11864
▁ქალწ	-11865
▁ჯეიმს	-11866
▁იტყვის	-11867
▁სატვირთ	-11868
▁ღიმილით	-11869
▁მომეწონა	-11870
▁საკვანძო	-11871
▁სურათები	-11872
▁უაღრესად	-11873
▁ქალბატონ	-11874
▁აღფრთოვან	-11875
▁სტუდენტების	-11876
▁შეყვარებული	-11877
▁რეკომენდებულია	-11878
ans	-11879
საზ	-11880
ყონ	-11881
კოსი	-11882
რძალა	-11883
▁ბაზა	-11884
▁დაურ	-11885
▁რიტუ	-11886
▁ტყვე	-11887
▁შარდ	-11888
▁თესლი	-11889
▁თქვას	-11890
▁ნათელ	-11891
▁ნაკად	-11892
პირველი	-11893
▁ბულგარ	-11894
▁მეტოქე	-11895
▁მისიის	-11896
▁ფორმას	-11897
▁მედიაში	-11898
▁ოთახიანი	-11899
▁სასურველ	-11900
▁ნეგატიური	-11901
▁საბიუჯეტო	-11902
▁საშუალებაა	-11903
▁შემცირებას	-11904
▁ექსპერტების	-11905
▁ჰუმანიტარული	-11906
პოს	-11907
▁Te	-11908
ბედა	-11909
სხვი	-11910
ჩინა	-11911
▁Sep	-11912
რონის	-11913
▁მძაფ	-11914
▁ეხმარ	-11915
▁სექსი	-11916
ერთიანი	-11917
▁კლუბში	-11918
▁რომანი	-11919
▁შეცვლი	-11920
▁წარწერ	-11921
▁ინახება	-11922
▁მიზეზის	-11923
▁დავიწყოთ	-11924
▁ერთადერთ	-11925
▁სერვისის	-11926
▁აღჭურვილი	-11927
▁პაციენტებში	-11928
ts	-11929
იმა	-11930
რიბ	-11931
ცეკ	-11932
ხამ	-11933
ბერი	-11934
ერეთ	-11935
▁Jul	-11936
▁თსუ	-11937
▁მეჩ	-11938
▁მოშ	-11939
▁შეშ	-11940
▁ჩაქ	-11941
▁კარს	-11942
▁ჟენე	-11943
▁სპირ	-11944
▁შეირ	-11945
რებლად	-11946
▁ველოს	-11947
▁ბარათი	-11948
▁Windows	-11949
▁ზომების	-11950
▁განაკვეთ	-11951
▁მოიხსენი	-11952
▁საწვავის	-11953
▁ქვეყანამ	-11954
▁სათანადოდ	-11955
▁სამშაბათი	-11956
▁რევოლუციის	-11957
▁მოქმედებების	-11958
▁ახალგაზრდობის	-11959
ey	-11960
fo	-11961
ვრო	-11962
ვიათ	-11963
ქსის	-11964
▁ფავ	-11965
ეფექტ	-11966
▁მოვე	-11967
აღსრულ	-11968
ციებზე	-11969
▁არღვე	-11970
▁ბრალია	-11971
▁ვადაში	-11972
ატორების	-11973
▁ახერხებს	-11974
ველმოქმედო	-11975
▁ბედნიერება	-11976
▁შეთანხმებით	-11977
▁შემოდგომაზე	-11978
▁კონფერენციის	-11979
▁ათე	-11980
▁კრემი	-11981
▁მისია	-11982
ვლებოდა	-11983
▁მოწინა	-11984
▁მოხსნა	-11985
▁პარკის	-11986
▁ბერძენი	-11987
▁გამოაცხ	-11988
▁დიალოგი	-11989
▁ქუჩებში	-11990
▁დადგინდა	-11991
▁იხსენებს	-11992
▁სტუმრები	-11993
▁დამუშავება	-11994
▁დაუშვებელია	-11995
▁ადმინისტრაცია	-11996
("#	-11997
უთუ	-11998
▁BBC	-11999
▁პანი	-12000
▁სერბ	-12001
ტალური	-12002
▁გორში	-12003
▁უაზრო	-12004
▁სიახლო	-12005
▁ქალაქს	-12006
▁გადაარჩ	-12007
▁ლეგენდა	-12008
▁მოსმენა	-12009
▁საბურთა	-12010
▁სახელის	-12011
▁სუნთქვა	-12012
ყოფაცხოვრ	-12013
▁მოითხოვა	-12014
▁საწარმოს	-12015
▁ალბათობით	-12016
▁კონტრაქტი	-12017
▁დეკემბერში	-12018
▁მიმზიდველი	-12019
დემოკრატიული	-12020
▁ზემოქმედების	-12021
თაა	-12022
ტუბ	-12023
▁BM	-12024
▁Le	-12025
▁იპ	-12026
ateg	-12027
ლიურ	-12028
▁აღენი	-12029
▁მიეცა	-12030
▁მოზიდ	-12031
▁პარკი	-12032
▁ქცევა	-12033
▁წვდომ	-12034
▁გაკვირ	-12035
▁ნიშნად	-12036
▁შუალედ	-12037
▁წლებია	-12038
▁გვითხრა	-12039
▁პირობით	-12040
▁ტექსტის	-12041
▁საშინლად	-12042
▁გამოწვევა	-12043
▁გაფორმებული	-12044
▁დედაქალაქში	-12045
▁აღმოსავლეთის	-12046
ath	-12047
▁ბიო	-12048
ყარეთ	-12049
▁არხი	-12050
▁ჩააბ	-12051
დღეობით	-12052
▁სთხოვა	-12053
▁გაატარა	-12054
▁აქციების	-12055
▁გამოვლინ	-12056
▁დევნილთა	-12057
▁ვლადიმირ	-12058
▁სიმართლეს	-12059
▁ბიუჯეტიდან	-12060
▁რეაგირების	-12061
▁განვითარებაზე	-12062
▁წარმომადგენლის	-12063
во	-12064
ორთ	-12065
▁გმ	-12066
▁ლათ	-12067
ლობაც	-12068
არაძის	-12069
ბიოტიკ	-12070
▁დაღლი	-12071
▁ქანდა	-12072
▁უქმნის	-12073
▁ხშირია	-12074
▁გვარამი	-12075
▁მეგობარს	-12076
ზრდელობითი	-12077
▁სამართალი	-12078
▁ინფიცირებული	-12079
▁ღარიბაშვილმა	-12080
იხ	-12081
ყავ	-12082
▁ძრო	-12083
ინდელ	-12084
▁ვოლს	-12085
▁მეგრ	-12086
▁მფარ	-12087
▁უხეშ	-12088
▁შედა	-12089
ატორმა	-12090
▁Views	-12091
▁დგება	-12092
▁ფოკუს	-12093
▁ჯვრის	-12094
ახსენდა	-12095
▁ნიმუში	-12096
აშვილთან	-12097
▁ანთების	-12098
▁ირკვევა	-12099
▁სხეულში	-12100
▁შვეიცარი	-12101
▁კეთილმოწყ	-12102
▁აღმოჩნდება	-12103
▁ვგულისხმობ	-12104
▁ყველაფერზე	-12105
▁გადაიყვანეს	-12106
▁სამსახურიდან	-12107
▁გაუმჯობესების	-12108
▁საზოგადოებასთან	-12109
ბრ	-12110
ანგი	-12111
აპელ	-12112
▁კიდ	-12113
▁შშმ	-12114
ჩვენა	-12115
▁ანაბ	-12116
▁ვწერ	-12117
დერლან	-12118
▁ანიმა	-12119
▁დროით	-12120
▁ესმის	-12121
▁ნამცხ	-12122
▁უხეში	-12123
ლობიდან	-12124
▁აღწერი	-12125
▁დეველო	-12126
▁მარადი	-12127
▁ტენიან	-12128
▁ქმნიან	-12129
▁დაიკავა	-12130
▁თერაპიის	-12131
▁უკეთესად	-12132
▁ცენტრები	-12133
▁ახალციხის	-12134
▁ნახევარმც	-12135
▁მაღალჩინოს	-12136
▁მოპოვებული	-12137
▁პერიოდულად	-12138
▁მდგომარეობს	-12139
▁ინფორმაციაში	-12140
▁ურთიერთობაში	-12141
▁საქველმოქმედო	-12142
ზს	-12143
rel	-12144
imes	-12145
ორია	-12146
რავს	-12147
რძან	-12148
ტოვა	-12149
ალება	-12150
ტაბილ	-12151
ანალიზ	-12152
▁გაუმართ	-12153
▁ზეწოლის	-12154
▁თამაშში	-12155
▁სხვაგან	-12156
▁ეროვნულმა	-12157
▁ქმედებები	-12158
▁შესწავლის	-12159
▁გატარებული	-12160
▁განვითარდეს	-12161
▁ექსპერტიზის	-12162
▁ადამიანებისთვის	-12163
იის	-12164
▁ია	-12165
ცნობა	-12166
განახლ	-12167
ყვანოთ	-12168
▁ვიქტორ	-12169
▁თერაპი	-12170
▁გადაზიდ	-12171
▁დღეიდან	-12172
▁ნაკვეთი	-12173
▁სარეცხი	-12174
▁სტუმრად	-12175
▁ფართობი	-12176
▁ფსიქიკური	-12177
▁გამოკვლევა	-12178
განახლებულია	-12179
ყოფაცხოვრებო	-12180
BA	-12181
რაციო	-12182
▁ასეც	-12183
▁დაეცა	-12184
▁ციტატ	-12185
▁ძვირი	-12186
▁ჩავარდ	-12187
▁აღიქვამ	-12188
▁ლიმონის	-12189
▁გარანტია	-12190
▁დემოკრატ	-12191
▁დიაგნოზი	-12192
▁ისაუბრეს	-12193
▁შეიქმნას	-12194
▁ადგილიდან	-12195
▁ტენდენცია	-12196
▁უი	-12197
▁ჩაშ	-12198
▁ჩიხ	-12199
დიზედ	-12200
ებმაც	-12201
ცემით	-12202
▁მოიგ	-12203
▁ნახოთ	-12204
▁ოცნებ	-12205
▁ტყეში	-12206
▁ფაქტო	-12207
▁მაისში	-12208
▁დარტყმა	-12209
▁მედიცინა	-12210
▁რეპროდუქ	-12211
▁დაკომპლექ	-12212
▁სასაზღვრო	-12213
▁გამომწვევი	-12214
საწინააღმდეგ	-12215
▁დემოკრატიულ	-12216
▁ხელშეწყობის	-12217
▁რეგისტრირებული	-12218
oh	-12219
ვოთ	-12220
ჰამ	-12221
▁ტბ	-12222
▁წნ	-12223
ინით	-12224
▁მოაგ	-12225
▁დამალ	-12226
▁ჰაერი	-12227
▁ვინმემ	-12228
▁იდეები	-12229
▁ემსახურ	-12230
▁თანაბარი	-12231
▁მინახავს	-12232
▁სტიპენდი	-12233
▁გამართავს	-12234
▁სახსრების	-12235
▁სილამაზის	-12236
▁ფოტოგრაფი	-12237
▁აღიარებული	-12238
▁საშუალების	-12239
▁ეტაპობრივად	-12240
▁ულტრაბგერითი	-12241
ჯოხ	-12242
▁wh	-12243
არონ	-12244
ისტი	-12245
პედი	-12246
▁ვულ	-12247
ართვა	-12248
ვამენ	-12249
ვარჯი	-12250
მხრივ	-12251
ონტაქ	-12252
▁გირა	-12253
▁დაუფ	-12254
▁იმათ	-12255
ციიდან	-12256
▁აღარც	-12257
▁დადის	-12258
▁წამოდ	-12259
georgia	-12260
რეწველო	-12261
▁გაუსვა	-12262
▁მარტში	-12263
▁მტკივნ	-12264
▁აქციები	-12265
▁მეთოდით	-12266
ახალგაზრდა	-12267
▁გამოცემის	-12268
▁რაოდენობას	-12269
▁სიმპტომების	-12270
ss	-12271
კეს	-12272
ხელმ	-12273
▁ბილი	-12274
▁მასი	-12275
ყარება	-12276
ყოლება	-12277
▁თირკმ	-12278
▁თხელი	-12279
▁მოეწყო	-12280
▁სმარტფ	-12281
▁მიზეზად	-12282
▁თანაბრად	-12283
▁ავღანეთში	-12284
▁ბოსტნეულის	-12285
▁კომპლექსური	-12286
▁გამოყენებისას	-12287
▁განხორციელებას	-12288
▁ჟურნალისტებთან	-12289
ilm	-12290
▁იე	-12291
უთის	-12292
▁ილუ	-12293
ატიულ	-12294
შორის	-12295
ცადოთ	-12296
▁უჭირს	-12297
ერებლად	-12298
▁დანადგ	-12299
▁პირბად	-12300
▁გასაკეთ	-12301
▁მეუღლის	-12302
▁უფროსმა	-12303
▁ხალხური	-12304
გამარჯობა	-12305
▁დააკმაყოფი	-12306
▁ენერგეტიკის	-12307
ატრ	-12308
▁Wh	-12309
დექი	-12310
▁ვოლ	-12311
▁მიც	-12312
▁გაიკ	-12313
▁ვიპო	-12314
ინიდან	-12315
▁ამოვი	-12316
▁საათით	-12317
▁ჰაერში	-12318
▁ვალუტის	-12319
▁კომისიამ	-12320
▁მაგიდაზე	-12321
▁თებერვლის	-12322
▁ორიგინალი	-12323
▁განმარტება	-12324
▁მაუწყებლის	-12325
▁სასტუმროში	-12326
▁გამორიცხავს	-12327
▁მეცნიერებმა	-12328
▁ენერგეტიკული	-12329
▁არაჩვეულებრივი	-12330
term	-12331
მეტრ	-12332
ჩრდი	-12333
▁You	-12334
▁ჯილ	-12335
ინური	-12336
▁გაით	-12337
▁მოვამ	-12338
▁შევხვ	-12339
▁აღმოვა	-12340
▁ზიანის	-12341
▁კონტინ	-12342
▁ორიენტ	-12343
▁გამოსავ	-12344
▁ზედიზედ	-12345
▁დაინიშნა	-12346
▁ნორმალურ	-12347
▁დასვენების	-12348
▁პრაქტიკაში	-12349
oft	-12350
ton	-12351
კაპ	-12352
სტრ	-12353
ხალ	-12354
ფერს	-12355
▁ვდგ	-12356
▁როს	-12357
▁დენი	-12358
▁ეძახ	-12359
▁სოფო	-12360
▁ყირი	-12361
ზიარებს	-12362
▁ორივეს	-12363
▁რეპეტი	-12364
▁სამცხე	-12365
მარებლად	-12366
▁გამოხმა	-12367
▁მენეჯერ	-12368
▁მერობის	-12369
▁ფრაქცია	-12370
▁საგრძნობ	-12371
▁გააგრძელებს	-12372
▁დისტანციური	-12373
▁როგორებიცაა	-12374
▁ქართველების	-12375
▁დამოუკიდებელ	-12376
▁ნივთიერებები	-12377
%.	-12378
დულ	-12379
line	-12380
ილში	-12381
ლოდი	-12382
ორებს	-12383
▁შეგე	-12384
▁აიძულ	-12385
▁მწვერ	-12386
▁სცადა	-12387
▁ადაპტი	-12388
▁მიაწოდ	-12389
▁მოვლის	-12390
▁დავკარგ	-12391
▁უარყოფს	-12392
▁ნაკლებია	-12393
ყუ	-12394
ბიძ	-12395
ვიზი	-12396
პერს	-12397
▁BPN	-12398
▁June	-12399
▁აიცი	-12400
▁ქარი	-12401
▁შევუ	-12402
ანობის	-12403
▁სადამ	-12404
▁ჯადოს	-12405
▁აღკვეთ	-12406
▁ვალერი	-12407
▁ტესტის	-12408
▁უმსხვი	-12409
▁ჩართულ	-12410
▁დღეების	-12411
▁დაადგინა	-12412
▁შეტანილი	-12413
▁აღმაშენებ	-12414
▁მხატვრული	-12415
▁ქართველთა	-12416
ატლანტიკური	-12417
▁გადასახადი	-12418
▁მეგობრების	-12419
▁ახალგაზრდებს	-12420
▁მტკიცებულება	-12421
▁ევროკავშირთან	-12422
სპ	-12423
ესხ	-12424
გური	-12425
ზადა	-12426
▁ნინ	-12427
ატული	-12428
ტორია	-12429
▁ბამბ	-12430
▁სანდ	-12431
▁ცხრი	-12432
▁წამს	-12433
▁მიმოს	-12434
ლობდნენ	-12435
▁არაფერ	-12436
▁მსხვილ	-12437
▁შეძლეს	-12438
▁გამონაყ	-12439
▁ვითარცა	-12440
▁მმართველ	-12441
▁სუვერენი	-12442
▁მორგებული	-12443
▁შესანიშნავად	-12444
▁საყოფაცხოვრებო	-12445
CO	-12446
აშკ	-12447
ლაპ	-12448
ვრას	-12449
კეტი	-12450
უღალ	-12451
▁ჩხე	-12452
ედანი	-12453
▁ნაზი	-12454
▁სიის	-12455
▁ლანჩხ	-12456
▁მოქცე	-12457
▁საკარ	-12458
▁ბრენდი	-12459
▁გაგება	-12460
▁განკურ	-12461
▁მიაყენ	-12462
▁ნიკოლა	-12463
▁სასაფლა	-12464
▁შეიმუშავ	-12465
▁ადამიანზე	-12466
▁გენერალურ	-12467
▁დასაქმება	-12468
▁გათავისუფლება	-12469
▁დაწესებულებებში	-12470
="	-12471
▁ოპ	-12472
▁შს	-12473
ელას	-12474
ძენს	-12475
▁იქა	-12476
artic	-12477
ცნობს	-12478
▁ზღვა	-12479
▁მეცხ	-12480
▁საცხ	-12481
მსახურ	-12482
▁ერთის	-12483
▁სტაფი	-12484
▁უშედეგ	-12485
▁აირჩიოთ	-12486
▁გამოცდა	-12487
▁მარშრუტ	-12488
▁შორისაა	-12489
▁გამოჩენა	-12490
▁ნიდერლან	-12491
▁ცნობისთვის	-12492
▁ადამიანებთან	-12493
▁სამზარეულოში	-12494
▁საქართველოსთან	-12495
წის	-12496
▁ქც	-12497
ject	-12498
უპატი	-12499
▁ადამ	-12500
▁შეუმ	-12501
აციური	-12502
დინამო	-12503
ესტრის	-12504
ისმგებ	-12505
▁პირას	-12506
აზღვროს	-12507
▁ორსული	-12508
▁ნაყოფის	-12509
▁შეღავათ	-12510
მანჩესტერ	-12511
▁გამგეობა	-12512
▁ელემენტი	-12513
▁მოწინავე	-12514
▁პროგნოზი	-12515
▁ხუთშაბათი	-12516
▁შემოგთავაზ	-12517
▁დოკუმენტების	-12518
.).	-12519
▁Se	-12520
land	-12521
ალაგ	-12522
▁ტიკ	-12523
▁ფიტ	-12524
▁ვლინ	-12525
▁ლაშქ	-12526
▁გასწვ	-12527
▁მკვდა	-12528
▁სიმძი	-12529
usiness	-12530
▁აქციას	-12531
▁აღზრდა	-12532
▁გაუკეთ	-12533
▁მხედვე	-12534
▁აღმოჩენა	-12535
▁არჩევნებს	-12536
▁მოხარშული	-12537
▁აღმოჩენილი	-12538
▁კომენტარები	-12539
▁თანდათანობით	-12540
▁გამოქვეყნებულ	-12541
ank	-12542
bil	-12543
▁--	-12544
adeb	-12545
ზიზღ	-12546
თქვა	-12547
ლარი	-12548
▁გივი	-12549
▁ჩეჩნ	-12550
▁თაფლი	-12551
▁კონდი	-12552
▁მოწაფ	-12553
▁სჯობს	-12554
▁ბრინჯა	-12555
▁დღესვე	-12556
▁კუნძულ	-12557
▁ნდობის	-12558
▁უზენაეს	-12559
▁ხარისხს	-12560
▁იმერეთის	-12561
▁პარტიები	-12562
▁სატვირთო	-12563
▁სპეცოპერ	-12564
▁არგუმენტი	-12565
▁ცხოველები	-12566
▁განვიხილოთ	-12567
▁სამუშაოებს	-12568
საერთაშორისო	-12569
▁მიეკუთვნება	-12570
AS	-12571
▁iP	-12572
????	-12573
კოპი	-12574
წევის	-12575
▁post	-12576
▁დარი	-12577
▁სულს	-12578
მხოლოდ	-12579
▁მზრუნ	-12580
გრძნობე	-12581
▁გურიის	-12582
▁დამაჯერ	-12583
▁ნაწილად	-12584
▁სეპარატ	-12585
▁ღირსების	-12586
▁დაზღვევის	-12587
▁მკითხველს	-12588
▁ოთხშაბათი	-12589
▁პრაქტიკის	-12590
▁სტრატეგიის	-12591
▁ქართველებს	-12592
▁პროპორციული	-12593
▁ექვემდებარება	-12594
OT	-12595
არგა	-12596
ენმა	-12597
ერას	-12598
ჯერო	-12599
▁Feb	-12600
▁IMD	-12601
▁ნაქ	-12602
ანაში	-12603
▁ბუჩქ	-12604
▁გაბუნი	-12605
▁მაგიდა	-12606
▁მოსთხო	-12607
▁სირიის	-12608
▁ცალსახ	-12609
კავშირის	-12610
უნიკაციო	-12611
▁გაირკვა	-12612
▁ერთგვარ	-12613
▁დაამატოთ	-12614
▁მხატვარი	-12615
▁სიმშვიდე	-12616
ინტერესებთ	-12617
▁დაამთავრა	-12618
▁უპირატესობას	-12619
▁ღვთისმშობლის	-12620
მგ	-12621
შავ	-12622
ხურ	-12623
ილენ	-12624
▁ასო	-12625
▁იზრ	-12626
▁ლიფ	-12627
▁წია	-12628
ატორს	-12629
ახლეს	-12630
ტერში	-12631
უნების	-12632
▁დანაკ	-12633
▁ინტელ	-12634
▁შტაბის	-12635
ელაპარაკ	-12636
▁გართობა	-12637
▁დააკვირ	-12638
▁დადგება	-12639
▁იძულებით	-12640
▁კმაყოფილ	-12641
▁ნაწილები	-12642
სახელმწიფო	-12643
▁არსებობას	-12644
▁იმუშავებს	-12645
▁კატეგორიაში	-12646
▁მეგობრებთან	-12647
ჭე	-12648
ube	-12649
ულას	-12650
▁სევ	-12651
ვნები	-12652
▁რისკს	-12653
▁სანტი	-12654
▁თანამო	-12655
▁პარკში	-12656
▁უცხოელ	-12657
▁ჰკითხა	-12658
▁გადავუხ	-12659
▁დაბალია	-12660
▁შეუსრულ	-12661
▁ორსულობა	-12662
▁შენახვის	-12663
▁Netgazeti	-12664
▁დაავადებული	-12665
▁დღესდღეობით	-12666
▁ნარკოტიკული	-12667
▁ჟურნალისტები	-12668
▁რეკომენდაცია	-12669
▁შემუშავებული	-12670
▁საწინააღმდეგოდ	-12671
AD	-12672
ara	-12673
ქიტი	-12674
ანებს	-12675
▁მწუხ	-12676
არდება	-12677
მავალი	-12678
რაციას	-12679
ტებთან	-12680
▁ბანაკ	-12681
▁ვიგრძ	-12682
▁იდეის	-12683
▁სეზონ	-12684
▁შეშინ	-12685
▁გამოუშ	-12686
▁თქვენც	-12687
▁მიწისძ	-12688
▁სიტყვი	-12689
▁ადგილია	-12690
▁აირჩიეთ	-12691
▁ხორბლის	-12692
▁ბიუჯეტში	-12693
▁დაძაბული	-12694
▁საათიდან	-12695
▁შეუერთდა	-12696
▁შუამდგომ	-12697
გამარჯობათ	-12698
▁ვებგვერდი	-12699
▁მოპოვების	-12700
▁ნოემბერში	-12701
▁გამოკითხვა	-12702
▁განაპირობა	-12703
▁საკმარისად	-12704
▁მთლიანობაში	-12705
▁პარტნიორები	-12706
▁სტატისტიკის	-12707
AC	-12708
rit	-12709
როდ	-12710
▁%-	-12711
date	-12712
ადოქ	-12713
ალექ	-12714
ჯანყ	-12715
▁ჩაე	-12716
▁წუხ	-12717
▁ხერ	-12718
მიერი	-12719
▁ზოგს	-12720
▁კანა	-12721
▁ავარი	-12722
▁არცთუ	-12723
▁გილოც	-12724
▁ესტუმ	-12725
▁თავშე	-12726
▁იცოდე	-12727
▁კვარტ	-12728
▁მაიკლ	-12729
▁მეპატ	-12730
▁პროტო	-12731
▁ამუშავ	-12732
▁დაბრკო	-12733
▁პრესტი	-12734
▁ნაწილაკ	-12735
▁შენახვა	-12736
▁მდივანმა	-12737
▁გვიჩვენებს	-12738
▁ინტერნეტით	-12739
▁მენსტრუაციის	-12740
▁პარტნიორების	-12741
▁პრეპარატების	-12742
▁რეკომენდებული	-12743
▁შესაძლებლობებს	-12744
უი	-12745
▁q	-12746
ოლზე	-12747
▁$("#	-12748
▁ენას	-12749
▁შეეფ	-12750
▁შეუც	-12751
▁ძაან	-12752
▁ისმის	-12753
▁სიბრძ	-12754
▁არჩევა	-12755
▁გამოგი	-12756
▁გრიპის	-12757
▁დეკანო	-12758
▁სისუსტე	-12759
▁სპორტულ	-12760
▁თავდაჯერ	-12761
▁მეტაბოლი	-12762
▁მოჰყვება	-12763
▁პლასტმას	-12764
▁გავაგრძელ	-12765
▁გაიხსნება	-12766
▁ერთჯერადი	-12767
▁შესახებაც	-12768
▁კავკასიაში	-12769
▁რესპუბლიკა	-12770
▁სანქციების	-12771
▁დაზარალებული	-12772
IV	-12773
ანჯ	-12774
ხვის	-12775
▁იუნ	-12776
▁ლიტ	-12777
▁ჰონ	-12778
მინდა	-12779
ყვანე	-12780
▁სიურ	-12781
▁ჩუენ	-12782
წესრიგ	-12783
▁ბებია	-12784
▁მინის	-12785
▁შურის	-12786
▁გვსურს	-12787
▁ვაშაძე	-12788
▁ნაკადი	-12789
▁თვისება	-12790
▁სხვების	-12791
▁შინაური	-12792
▁წარმოაჩ	-12793
▁ხანძრის	-12794
▁არავითარ	-12795
▁მოსავლის	-12796
▁დაიმსახურ	-12797
▁კანონიერი	-12798
▁პრემიერმა	-12799
▁საჭიროება	-12800
▁დეზინფორმა	-12801
▁შეურაცხყოფა	-12802
▁წინააღმდეგობა	-12803
ci	-12804
ade	-12805
uri	-12806
▁დნ	-12807
▁ვაგ	-12808
▁ტყე	-12809
▁ჰემ	-12810
ვნებს	-12811
▁კაბა	-12812
ძლევენ	-12813
▁ათვის	-12814
▁დასკვ	-12815
▁კურთხ	-12816
▁მერყე	-12817
▁მიულო	-12818
▁როლის	-12819
▁ფსიქი	-12820
▁ჯერზე	-12821
▁ჯორჯი	-12822
▁გამომი	-12823
▁დარგის	-12824
▁თემები	-12825
▁სააპელ	-12826
▁ტრამპი	-12827
▁თვალებს	-12828
▁გვქონდეს	-12829
▁ლოგიკური	-12830
▁რუსთავში	-12831
▁ინსტიტუცი	-12832
▁ფეხბურთელები	-12833
▁ერთმანეთისგან	-12834
ica	-12835
აშემ	-12836
▁ხვი	-12837
ობდით	-12838
▁მეომ	-12839
▁ნაპო	-12840
▁სამხ	-12841
▁ხიდი	-12842
ობებზე	-12843
ხსენებ	-12844
▁შიშის	-12845
▁ფავორი	-12846
▁ანიჭებს	-12847
▁დასძინა	-12848
▁ავტობუსი	-12849
▁მეგობრის	-12850
▁საქმეების	-12851
▁მიმართებით	-12852
▁ამჟამინდელი	-12853
EF	-12854
▁PR	-12855
ამაც	-12856
დედა	-12857
დიუს	-12858
ურვა	-12859
▁ასი	-12860
▁მიბ	-12861
დებენ	-12862
▁ცხიმ	-12863
▁წმინ	-12864
ასროლი	-12865
▁ამსახ	-12866
▁სარდა	-12867
საყოფად	-12868
▁გააძლი	-12869
▁ზღვაში	-12870
▁მედალი	-12871
▁მომხიბ	-12872
▁ვაჭრობა	-12873
▁მეექვსე	-12874
▁მიიღება	-12875
▁იანვარში	-12876
▁სისტემით	-12877
▁ქართულმა	-12878
▁წარმოადგ	-12879
▁მთავრდება	-12880
▁ჩართულობის	-12881
▁აინტერესებს	-12882
▁კაცობრიობის	-12883
▁განკუთვნილია	-12884
❤❤	-12885
eri	-12886
შეი	-12887
წმი	-12888
ევმა	-12889
უკრა	-12890
▁დერ	-12891
ვაძემ	-12892
ინდის	-12893
მახსო	-12894
ულთან	-12895
▁ელენ	-12896
▁კური	-12897
▁ლალი	-12898
▁მღვდ	-12899
▁ტკბი	-12900
▁გახეხ	-12901
▁კინოფ	-12902
▁მელია	-12903
პროგრამ	-12904
▁მიმწოდ	-12905
▁მოინახ	-12906
▁ფაქტის	-12907
▁წავედი	-12908
▁გადადგა	-12909
▁დაემატა	-12910
▁დაესწრო	-12911
▁მკაფიოდ	-12912
▁წინააღმ	-12913
▁გექნებათ	-12914
▁კლინიკის	-12915
▁გასართობი	-12916
▁ეპისკოპოს	-12917
▁ტელევიზია	-12918
▁უსაფრთხოდ	-12919
▁დასახმარებლად	-12920
▁ინფრასტრუქტურა	-12921
за	-12922
ნული	-12923
რებო	-12924
▁არო	-12925
▁დალ	-12926
▁დრა	-12927
▁ემო	-12928
▁ლოს	-12929
ავილი	-12930
დამთავ	-12931
▁Apple	-12932
▁აჯანყ	-12933
▁გააზრ	-12934
▁კარიბ	-12935
▁ნევრო	-12936
▁ფრაგმ	-12937
▁ჯდება	-12938
მინისტრ	-12939
ლმდებარე	-12940
საზოგადო	-12941
▁იმასთან	-12942
▁მაჩალიკ	-12943
▁წერილის	-12944
▁გამხდარი	-12945
▁გაიმარჯვა	-12946
▁მოთხოვნას	-12947
▁სანქციები	-12948
▁წარდგენის	-12949
▁ვაქცინაცია	-12950
▁სიტუაციების	-12951
▁მომხმარებლები	-12952
**	-12953
▁le	-12954
ართი	-12955
რგუნ	-12956
ფოტო	-12957
▁ნუს	-12958
▁ონკ	-12959
ციკლო	-12960
▁ლადო	-12961
თხვევა	-12962
▁გადალ	-12963
▁ლარია	-12964
▁მათში	-12965
▁მოვის	-12966
▁ყაზახ	-12967
▁ცნობა	-12968
▁კაზინო	-12969
▁შთამომ	-12970
ტომატოლო	-12971
ულისხმება	-12972
▁ადგილზეა	-12973
▁გასწვრივ	-12974
▁საჩუქარი	-12975
▁ტექნიკით	-12976
▁დახვეწილი	-12977
▁საფუძველს	-12978
▁სარგებლობის	-12979
erm	-12980
ამოწ	-12981
ძახა	-12982
▁ემბ	-12983
ტიმური	-12984
▁გარიგ	-12985
▁დონეს	-12986
▁მორიგ	-12987
▁ოფისი	-12988
▁შესარ	-12989
▁ციკლი	-12990
▁ვიღებთ	-12991
▁მარინა	-12992
ემბრამდე	-12993
▁გამწვან	-12994
▁მესაკუთ	-12995
▁წინამძღ	-12996
▁კვლევითი	-12997
▁მოვამზად	-12998
▁სამშობლო	-12999
▁დასავლური	-13000
▁ეფექტურია	-13001
▁აბსოლუტური	-13002
▁ბიბლიოთეკა	-13003
▁გაგრძელდეს	-13004
▁პაციენტებს	-13005
▁ლიტერატურული	-13006
▁ზედამხედველობის	-13007
aq	-13008
че	-13009
ოჭ	-13010
▁ex	-13011
ალეს	-13012
არტო	-13013
უსმა	-13014
უტან	-13015
▁ლის	-13016
▁სპე	-13017
▁ჭაბ	-13018
ავლოდ	-13019
▁არდა	-13020
▁გზაა	-13021
▁კული	-13022
▁ჰიპო	-13023
▁ჰყავთ	-13024
ენიჭება	-13025
▁დამყარ	-13026
▁მარშრუ	-13027
▁მეღვინ	-13028
▁მრეწვე	-13029
▁რჩეული	-13030
▁აკავშირ	-13031
▁სრულფას	-13032
▁დისტანცი	-13033
▁კომიტეტი	-13034
▁ლონდონში	-13035
▁პროდუქტს	-13036
▁წარსულის	-13037
▁დატვირთვა	-13038
▁სასახლეში	-13039
▁ოპტიმალური	-13040
▁თანამდებობიდან	-13041
▁უზრუნველსაყოფად	-13042
ors	-13043
რეკ	-13044
წირა	-13045
ტოვებ	-13046
▁ალას	-13047
▁გაახ	-13048
▁უჭერ	-13049
▁შორი	-13050
▁გაგვა	-13051
▁დოზით	-13052
▁იცხოვ	-13053
ფინალში	-13054
▁ბანკმა	-13055
▁გასაოც	-13056
▁ეპარქი	-13057
▁ნაცრის	-13058
▁სასჯელ	-13059
▁აწუხებს	-13060
▁გაყიდვა	-13061
▁დასაბუთ	-13062
▁გავიხსენ	-13063
▁ვლინდება	-13064
▁იმსახურებს	-13065
▁მიზანშეწონი	-13066
▁ჟურნალისტის	-13067
▁საგრძნობლად	-13068
▁მუნიციპალიტეტი	-13069
▁წყალმომარაგების	-13070
▁ჩუ	-13071
აშის	-13072
კომპ	-13073
უარდ	-13074
ჩემს	-13075
▁დიღ	-13076
ვებას	-13077
▁ადევ	-13078
▁ეწვი	-13079
მოვანი	-13080
ქართვე	-13081
▁გასამ	-13082
▁პალატ	-13083
▁მუზეუმ	-13084
▁პანკის	-13085
▁სკოლას	-13086
▁სტარტა	-13087
▁ჩავიდა	-13088
▁წყალტუბ	-13089
▁ვიქნებით	-13090
▁საქმეები	-13091
▁საქმიანი	-13092
▁ფიქრობდა	-13093
▁განაცხადი	-13094
▁ობიექტური	-13095
▁აზროვნების	-13096
▁მამაკაცები	-13097
▁ოქტომბერში	-13098
▁შესრულებას	-13099
▁სახელწოდება	-13100
▁ღონისძიებას	-13101
▁ჯანმრთელობაზე	-13102
▁მონაწილეობდნენ	-13103
გბ	-13104
▁−	-13105
int	-13106
ლათ	-13107
მუხ	-13108
RESS	-13109
აქვთ	-13110
▁ეწე	-13111
▁იაფ	-13112
▁ლოდ	-13113
▁ნეკ	-13114
▁შან	-13115
ავტობ	-13116
▁აკვირ	-13117
▁გაერო	-13118
▁მაგას	-13119
▁იგრძნო	-13120
▁მიდიან	-13121
▁მიცემა	-13122
▁საბჭომ	-13123
▁ბევრჯერ	-13124
▁თამამად	-13125
▁თვალწინ	-13126
▁მეშინია	-13127
მნიშვნელო	-13128
▁აღწერილი	-13129
▁დავეხმარ	-13130
▁თვითონაც	-13131
▁პოლიციას	-13132
▁მონასტრის	-13133
▁სისტემაზე	-13134
▁შეცდომები	-13135
▁წაიკითხეთ	-13136
▁თებერვალში	-13137
▁მატარებელი	-13138
▁შემთხვევაა	-13139
▁დღესასწაული	-13140
▁ადგილმდებარე	-13141
ти	-13142
▁ფე	-13143
იერი	-13144
ლდეს	-13145
ყიდი	-13146
▁უეფ	-13147
ქცევა	-13148
▁ვიწყ	-13149
▁სალი	-13150
▁ხმები	-13151
▁ამგვარ	-13152
▁საუბარს	-13153
▁ამერიკულ	-13154
▁მხიარული	-13155
▁სუნთქვის	-13156
▁უნარების	-13157
▁მახლობლად	-13158
▁საზაფხულო	-13159
▁შეასრულოს	-13160
▁იმყოფებიან	-13161
▁რეგიონების	-13162
▁დაუდასტურდა	-13163
▁ჩემპიონატზე	-13164
▁კატეგორიულად	-13165
საგანმანათლებლო	-13166
orn	-13167
წრე	-13168
ილმა	-13169
ოლით	-13170
▁გეო	-13171
იზოლა	-13172
იტანს	-13173
▁დავს	-13174
▁მიშა	-13175
▁ბრენდ	-13176
▁სტერე	-13177
▁წავალ	-13178
▁დაწერი	-13179
▁კლასიკ	-13180
▁მოსაწყ	-13181
▁დააბრუნ	-13182
▁პერიოდს	-13183
▁წავიდეთ	-13184
▁ვაკეთებთ	-13185
▁მოხერხდა	-13186
▁სერტიფიკ	-13187
▁დაკარგვის	-13188
▁კარტოფილი	-13189
▁მცდელობის	-13190
▁ინდუსტრიის	-13191
▁კანდიდატმა	-13192
▁რომელთანაც	-13193
▁ხასიათდება	-13194
mer	-13195
იბრი	-13196
კვებ	-13197
პალი	-13198
ვარზე	-13199
ტარულ	-13200
▁გააღ	-13201
ვიდოდა	-13202
▁ბორის	-13203
▁გამუდ	-13204
▁დაბნე	-13205
▁კარგა	-13206
▁მიზნობ	-13207
▁კვარაცხ	-13208
▁შეიტანა	-13209
▁ლექსიკონი	-13210
▁ხაზგასმით	-13211
▁გულწრფელად	-13212
▁მართლმსაჯულების	-13213
],	-13214
ale	-13215
ონე	-13216
ლინი	-13217
პები	-13218
პლან	-13219
ხვედ	-13220
▁ადგ	-13221
ებანი	-13222
ტიკაში	-13223
▁განას	-13224
▁იზოლი	-13225
▁იოსებ	-13226
▁ლიტრი	-13227
▁მაგის	-13228
▁მაკია	-13229
▁სამოს	-13230
ახლოვდა	-13231
▁ზელენს	-13232
▁ლტოლვი	-13233
▁მალხაზ	-13234
▁ნაწლავ	-13235
▁ნიღაბი	-13236
▁მომგები	-13237
▁მსჯელობა	-13238
▁კონცეფცია	-13239
▁ფინანსები	-13240
▁ანტიბიოტიკ	-13241
▁ბიოლოგიური	-13242
ბეგ	-13243
▁შტ	-13244
ლავს	-13245
▁und	-13246
▁ცხვ	-13247
ვერის	-13248
უბილე	-13249
▁ლომი	-13250
▁პენს	-13251
▁ტონი	-13252
▁სქემა	-13253
▁ძებნა	-13254
▁დროული	-13255
▁ვიცნობ	-13256
▁ლიგაში	-13257
▁მთვარე	-13258
▁პორტის	-13259
▁შესვენ	-13260
▁ჩამორჩ	-13261
▁კახეთში	-13262
▁მოედანი	-13263
▁ნიჭიერი	-13264
▁ტრამპმა	-13265
ხელმძღვან	-13266
▁აპირებენ	-13267
▁არსებითი	-13268
▁გასამართ	-13269
▁საზღვარი	-13270
▁საკითხში	-13271
▁უგულებელ	-13272
▁შეხვდება	-13273
▁აღმოჩნდეს	-13274
▁მტკიცებით	-13275
▁დღეისათვის	-13276
▁მოყოლებული	-13277
▁სამომავლოდ	-13278
▁ქორწინების	-13279
საწინააღმდეგო	-13280
▁გარემოსდაცვითი	-13281
აყ	-13282
▁დიქ	-13283
▁პოე	-13284
ელიამ	-13285
▁ნელი	-13286
▁სეგმ	-13287
▁შერწყ	-13288
ულოვანი	-13289
▁ვნახეთ	-13290
▁კბილის	-13291
▁ფიქრობ	-13292
აციასთან	-13293
▁მიზნები	-13294
▁საზეიმო	-13295
▁საძიებო	-13296
▁მჭირდება	-13297
▁პოზიციის	-13298
▁ამასობაში	-13299
▁გადაცემაში	-13300
▁განაცხადის	-13301
▁მილიონობით	-13302
▁ტექნოლოგიები	-13303
▁ცეცხლსასროლი	-13304
▁ჟურნალისტების	-13305
კუნ	-13306
ვრულ	-13307
ისას	-13308
ლიდა	-13309
ქმნა	-13310
▁თოფ	-13311
▁ქამ	-13312
▁ჰიტ	-13313
ისტის	-13314
აცემად	-13315
ვლიდან	-13316
▁გადაგ	-13317
▁გათხო	-13318
აკლებად	-13319
ოცნების	-13320
▁ირწმუნ	-13321
▁ბერძნული	-13322
▁გავაკეთე	-13323
▁დეფიციტი	-13324
▁უკეთესია	-13325
▁ჯაფარიძე	-13326
▁გადაწყვეტ	-13327
▁გერმანელი	-13328
▁მაგალითია	-13329
▁მეგობრული	-13330
▁სავარჯიშო	-13331
▁ვარდისფერი	-13332
▁ყველაფერში	-13333
▁გამოცხადებული	-13334
❤️	-13335
აწყ	-13336
ბეკ	-13337
ბიზ	-13338
▁Be	-13339
იძის	-13340
მებს	-13341
რევა	-13342
ღვიძ	-13343
▁ვურ	-13344
ექცია	-13345
ინაში	-13346
▁ჰორი	-13347
orgian	-13348
ყვანოს	-13349
▁გულზე	-13350
▁ჯვარი	-13351
▁Intern	-13352
▁მწვანი	-13353
▁გამომძი	-13354
▁დადგენა	-13355
▁მონადირ	-13356
▁გაფრინდა	-13357
▁გოგონები	-13358
▁ვმუშაობთ	-13359
▁კონცერტი	-13360
▁პროცესზე	-13361
▁გამოძიებას	-13362
▁გადაწყვიტეს	-13363
▁ოპერაციების	-13364
▁დამოუკიდებლობა	-13365
▁ვალდებულებების	-13366
▁ძვირადღირებული	-13367
ty	-13368
ux	-13369
we	-13370
ung	-13371
პლა	-13372
უამ	-13373
ჟღავ	-13374
▁დეფ	-13375
ზერვო	-13376
ღამის	-13377
▁ლანდ	-13378
▁ღვთა	-13379
მცოდნე	-13380
▁არათუ	-13381
▁ბმული	-13382
▁მიენი	-13383
▁სათავ	-13384
▁ქონდა	-13385
▁ჯოჯოხ	-13386
▁დავალი	-13387
▁ზესტაფ	-13388
▁მძღოლი	-13389
▁გაწეული	-13390
▁ეხებოდა	-13391
▁რეგიონი	-13392
▁სამარცხ	-13393
▁საშიშრო	-13394
▁ძვირფას	-13395
▁ველოდები	-13396
▁სილამაზე	-13397
▁უყურებდა	-13398
▁იანვრიდან	-13399
▁გადარჩენის	-13400
▁მთლიანობის	-13401
▁პროცედურის	-13402
▁სამართლებრივ	-13403
▁გაუმჯობესებას	-13404
de	-13405
ern	-13406
ium	-13407
აშო	-13408
▁sp	-13409
დგარ	-13410
რმავ	-13411
ყვავ	-13412
ჩიოთ	-13413
აბჭოს	-13414
რესია	-13415
რიცხო	-13416
ტიკულ	-13417
▁გათი	-13418
▁დაირ	-13419
▁ვანი	-13420
▁მერს	-13421
▁სინგ	-13422
არისხო	-13423
უბნები	-13424
▁კაპან	-13425
▁მკლავ	-13426
▁მშვილ	-13427
▁სამოთ	-13428
▁ჩაკეტი	-13429
▁ხმების	-13430
▁დოქტორი	-13431
▁ეფექტის	-13432
▁რეკლამა	-13433
▁აკადემია	-13434
▁დავიცვათ	-13435
▁კონტროლს	-13436
▁ბრალდების	-13437
▁მიძღვნილი	-13438
▁ასოცირების	-13439
▁ემსხვერპლა	-13440
▁ობიექტების	-13441
▁უარყოფითად	-13442
▁შემუშავება	-13443
▁მშობიარობის	-13444
▁გამჭვირვალობა	-13445
ми	-13446
კმა	-13447
▁ხსო	-13448
ურვებ	-13449
▁სარა	-13450
ილებით	-13451
▁ვაზის	-13452
▁ჩანახ	-13453
▁აღების	-13454
▁ექსპორ	-13455
▁მივედი	-13456
▁საელჩო	-13457
▁დაივიწყ	-13458
▁ვაკეთებ	-13459
▁ვეტერინ	-13460
▁შეუწყოს	-13461
▁შრომითი	-13462
▁ცარიელი	-13463
▁გათვლილი	-13464
▁რეალობის	-13465
აღმოსავლეთ	-13466
▁სისტემები	-13467
▁სისხლძარღ	-13468
▁დაკომპლექტ	-13469
▁დატვირთული	-13470
▁ელექტრონულ	-13471
▁მისამართზე	-13472
▁სააპელაციო	-13473
▁რეგულაციების	-13474
▁წარმოგიდგენთ	-13475
▁განხორციელდეს	-13476
ექსი	-13477
ფარე	-13478
▁აუზ	-13479
შტაბი	-13480
წვდის	-13481
▁news	-13482
▁გაჰყ	-13483
▁გოჩა	-13484
რადგან	-13485
▁სამთო	-13486
▁სასუქ	-13487
▁სითბო	-13488
▁შაქარ	-13489
▁ანონიმ	-13490
▁ბანკში	-13491
▁უწყება	-13492
▁აღკვეთა	-13493
▁დაშავდა	-13494
▁სახალის	-13495
კავშირდით	-13496
▁სასჯელის	-13497
▁კატასტროფ	-13498
▁არსებობდეს	-13499
▁განთავისუფ	-13500
▁ინვესტიცია	-13501
▁ორგანიზაციას	-13502
▁ინგრედიენტები	-13503
ky	-13504
ски	-13505
ანძ	-13506
ivers	-13507
▁აბორ	-13508
▁თარო	-13509
▁ინფო	-13510
▁რითი	-13511
▁რობო	-13512
▁ღრუს	-13513
▁შეგნ	-13514
ლებშიც	-13515
▁ანდრო	-13516
▁მჟავა	-13517
▁მსურს	-13518
წრებოდა	-13519
▁მძიმედ	-13520
▁ცერცვა	-13521
▁არჩევის	-13522
▁თერაპია	-13523
▁თხევადი	-13524
▁მიენიჭა	-13525
▁სიურპრი	-13526
▁ტერმინი	-13527
▁დაგავიწყ	-13528
▁დახურული	-13529
▁აპლიკაცია	-13530
▁ინტერვიუს	-13531
▁სარეზერვო	-13532
▁ავტომატური	-13533
▁გადაწყვეტს	-13534
▁ევროკომისი	-13535
▁მოლაპარაკების	-13536
▁პრეზიდენტობის	-13537
ET	-13538
ah	-13539
ery	-13540
ვიცი	-13541
რიალ	-13542
ხატა	-13543
▁გალი	-13544
▁მონო	-13545
▁ნუთუ	-13546
▁სიდი	-13547
აბჭოთა	-13548
▁აბსურ	-13549
▁ბევრია	-13550
▁გამკაც	-13551
▁კალორი	-13552
▁ტერორი	-13553
▁შესული	-13554
▁აღმოჩენ	-13555
▁დანახვა	-13556
▁ლითონის	-13557
▁მოაწერა	-13558
▁უდანაშა	-13559
▁უყურებს	-13560
▁შტატები	-13561
▁ალბათობა	-13562
▁მხარეებს	-13563
▁ნებართვა	-13564
▁სტალინის	-13565
▁შეიძინოთ	-13566
▁მეთვალყურ	-13567
▁მინერალური	-13568
▁სამწუხაროა	-13569
erv	-13570
დოკ	-13571
თეზ	-13572
კოც	-13573
ითაც	-13574
მიტი	-13575
▁was	-13576
▁ტიტ	-13577
ცემენ	-13578
ჭერად	-13579
▁ერდო	-13580
▁ობამ	-13581
▁გულით	-13582
▁ამხელა	-13583
▁გალერე	-13584
▁ღიმილი	-13585
▁შეკვეთ	-13586
▁წლევან	-13587
▁ჰეპატი	-13588
ნაცმოძრა	-13589
▁გადაცემ	-13590
▁დაასრულ	-13591
▁შემოდის	-13592
▁გააჩნიათ	-13593
▁დავალება	-13594
▁ტრენინგი	-13595
▁იმოქმედებს	-13596
▁ქირურგიული	-13597
▁განსხვავებულ	-13598
ars	-13599
ool	-13600
ფურ	-13601
დარბ	-13602
ვინო	-13603
▁სიგ	-13604
ction	-13605
ეკითხ	-13606
▁არავ	-13607
▁უსახ	-13608
ანტური	-13609
ინდისი	-13610
შორისი	-13611
▁წამში	-13612
▁გააგრძ	-13613
▁კლასში	-13614
ლაპარაკა	-13615
▁აკრიტიკ	-13616
▁გქონდეთ	-13617
▁მჭიდროდ	-13618
▁შეაფასა	-13619
▁გააკეთეთ	-13620
▁ნაწლავის	-13621
▁ქაღალდის	-13622
▁შერჩევის	-13623
▁სტომატოლო	-13624
▁ქალაქებში	-13625
▁ჯანმრთელობისა	-13626
IP	-13627
თურ	-13628
ყრა	-13629
ings	-13630
ატიმ	-13631
ოტთა	-13632
▁Aug	-13633
ვლიდა	-13634
ისტრო	-13635
ელიანი	-13636
ექციის	-13637
ტიკოსი	-13638
▁აღწერ	-13639
▁გაშუქ	-13640
▁გისურ	-13641
▁გააცნო	-13642
▁გაუჩინ	-13643
▁მეტრის	-13644
▁ხეობის	-13645
▁გარედან	-13646
▁თელავის	-13647
▁მუსიკოს	-13648
▁სურათის	-13649
▁ქალებში	-13650
▁შექმნათ	-13651
▁აპირებდა	-13652
▁გააკეთეს	-13653
▁გაგზავნა	-13654
▁ემზადება	-13655
▁ვიგრძენი	-13656
▁სვანეთის	-13657
▁დასასრული	-13658
▁დასჭირდება	-13659
▁ნამუშევრები	-13660
▁წინააღმდეგი	-13661
ata	-13662
რეშ	-13663
▁ჟღ	-13664
▁რძ	-13665
მილი	-13666
შვენ	-13667
ადაში	-13668
ტყვით	-13669
▁დააპ	-13670
▁ზარი	-13671
▁მანდ	-13672
▁დენის	-13673
▁მონახ	-13674
▁სინან	-13675
▁აგრძელ	-13676
▁გარშემ	-13677
▁დაარქი	-13678
▁ველური	-13679
▁ინსტალ	-13680
▁პატრონ	-13681
▁სიკეთე	-13682
▁ემატება	-13683
▁კალიფორ	-13684
▁მოთხრობ	-13685
▁სიუჟეტი	-13686
▁გადამზად	-13687
▁განმტკიც	-13688
▁მედიასაშ	-13689
▁მუზეუმში	-13690
▁პომიდორი	-13691
▁სასაცილო	-13692
▁ფილმების	-13693
▁არტერიული	-13694
▁ეფექტიანი	-13695
▁საზღვარზე	-13696
▁შოკოლადის	-13697
▁წარმატებულ	-13698
ign	-13699
own	-13700
ვნიკ	-13701
ოდათ	-13702
▁კლო	-13703
▁მიჯ	-13704
აბრუნ	-13705
რებდა	-13706
სგავს	-13707
▁ადაპ	-13708
▁ბელო	-13709
▁დიეტ	-13710
▁ოქრუ	-13711
▁სალო	-13712
ცხადეს	-13713
▁თაობა	-13714
▁მაკედ	-13715
▁ცხვირ	-13716
კვეთება	-13717
▁უილიამ	-13718
▁ძალებს	-13719
▁აპრილში	-13720
▁გამოდგა	-13721
▁დაიხარჯ	-13722
▁საკვებს	-13723
▁შეეძლოთ	-13724
▁ხელიდან	-13725
▁მხარდასა	-13726
▁საყურადღ	-13727
▁სწავლობს	-13728
▁აღმოაჩინა	-13729
▁ვცხოვრობთ	-13730
▁მიმართავენ	-13731
▁მიწისქვეშა	-13732
▁ფედერალური	-13733
▁ყვავილების	-13734
▁პროცედურები	-13735
▁უმრავლესობას	-13736
ви	-13737
ჩაი	-13738
ალობ	-13739
კიდა	-13740
▁წირ	-13741
ვანზე	-13742
▁ბეჭდ	-13743
▁სიცხ	-13744
▁სქემ	-13745
▁თემაა	-13746
▁იაკობ	-13747
▁მოგვა	-13748
▁სერთი	-13749
▁ცქიტი	-13750
▁ხაზზე	-13751
▁მარიხუ	-13752
▁პლანეტ	-13753
▁სადავო	-13754
▁ტრავმა	-13755
ნაწლავის	-13756
▁გვესმის	-13757
▁პალატის	-13758
▁პარტიამ	-13759
▁სიმსივნ	-13760
▁შექმნეს	-13761
▁მოსწავლის	-13762
▁უბედურება	-13763
▁ხელსაყრელი	-13764
▁ლეგენდარული	-13765
▁აღმაშენებლის	-13766
▁განსაკუთრებულად	-13767
ვუ	-13768
ვავ	-13769
კატ	-13770
შუა	-13771
გომა	-13772
▁ყრი	-13773
ელაძე	-13774
▁არსი	-13775
▁პედი	-13776
▁პლენ	-13777
ლობასა	-13778
▁ბედის	-13779
▁მოერი	-13780
▁მოვით	-13781
▁მოტყუ	-13782
▁სიგან	-13783
▁წელში	-13784
ჭიროება	-13785
▁აქცევს	-13786
▁კომბოს	-13787
▁მდგრად	-13788
▁ბიზანტი	-13789
▁იწყებენ	-13790
▁მცხეთის	-13791
▁ნაცნობი	-13792
▁შევიწრო	-13793
▁ცხოველი	-13794
ფიცირების	-13795
▁ამაღლება	-13796
▁გამოცდის	-13797
▁დისკუსია	-13798
▁შესასრულ	-13799
▁დამარცხდა	-13800
▁ნამუშევარი	-13801
▁აზერბაიჯანში	-13802
▁me	-13803
პერი	-13804
პირა	-13805
ვარდი	-13806
ვეული	-13807
▁NEWS	-13808
▁სადღე	-13809
ლიანობა	-13810
▁არასაკ	-13811
▁ედუარდ	-13812
▁მძიმეა	-13813
▁სიცილი	-13814
▁წიწაკა	-13815
▁ბარათის	-13816
▁გაანადგ	-13817
▁წავიდეს	-13818
▁გლობალურ	-13819
▁ნივთების	-13820
▁უმეტესად	-13821
▁დაგეგმილია	-13822
▁სამსახურმა	-13823
▁კონსულტაციები	-13824
▁მტკიცებულებები	-13825
ан	-13826
hel	-13827
გაბ	-13828
კოლ	-13829
▁Tr	-13830
არებ	-13831
▁ურთ	-13832
▁ჰაკ	-13833
ებური	-13834
ელური	-13835
▁დადო	-13836
▁სპიკ	-13837
▁ქურდ	-13838
ბურგში	-13839
▁ვაშლი	-13840
▁სითხე	-13841
▁შეკავ	-13842
▁ჩანთა	-13843
▁ხორვა	-13844
▁არომატ	-13845
▁ბოროტი	-13846
▁დაწვრი	-13847
ინიშნება	-13848
უნივერსი	-13849
▁ენციკლო	-13850
▁ოცნებამ	-13851
▁პროდიუს	-13852
▁დაამტკიც	-13853
▁პასუხები	-13854
▁მანჩესტერ	-13855
▁პროგრამით	-13856
▁გამოიყენონ	-13857
▁პოტენციური	-13858
▁ადამიანებმა	-13859
▁ალტერნატივა	-13860
▁სასჯელაღსრულ	-13861
ti	-13862
მპ	-13863
ree	-13864
აქს	-13865
ქიფ	-13866
ცალ	-13867
ჭამ	-13868
▁My	-13869
▁it	-13870
ამბო	-13871
ცადე	-13872
▁კლა	-13873
ელისა	-13874
▁საომ	-13875
აყალიბ	-13876
ლისგან	-13877
▁სჯერა	-13878
ონსტრუქ	-13879
▁ანტონი	-13880
▁უსვამს	-13881
▁ქანდაკ	-13882
▁წამალი	-13883
▁დააყენა	-13884
▁სივრცეს	-13885
▁არამარტო	-13886
▁დასკვნის	-13887
▁პარტიული	-13888
▁საკვერცხ	-13889
▁ქვეყანაა	-13890
▁შეცვალოს	-13891
▁ასამბლეის	-13892
▁ასრულებენ	-13893
▁ბავშვობის	-13894
▁დოკუმენტში	-13895
▁რეკომენდაციების	-13896
მბ	-13897
ისკ	-13898
ნმა	-13899
სოფ	-13900
▁ge	-13901
ცანი	-13902
▁დენ	-13903
▁ზნე	-13904
▁შეჰ	-13905
▁ჰამ	-13906
აკითხ	-13907
▁შედე	-13908
▁ტალღა	-13909
▁ფრაზა	-13910
▁ანთება	-13911
▁მისვლა	-13912
▁ხათუნა	-13913
უბნებიან	-13914
▁ოდენობის	-13915
▁ალკოჰოლის	-13916
▁ბრიტანული	-13917
▁გაფრთხილება	-13918
▁დაწვრილებით	-13919
▁პატივისცემა	-13920
▁პოპულარულია	-13921
▁შემოქმედება	-13922
▁ჩამონათვალი	-13923
▁განცხადებებს	-13924
▁პროკურატურაში	-13925
უხი	-13926
▁PC	-13927
ated	-13928
▁გიჟ	-13929
▁ერე	-13930
▁ლიბ	-13931
▁ტაფ	-13932
▁ხაშ	-13933
ონიათ	-13934
▁ვებს	-13935
▁ზურა	-13936
▁მარაგ	-13937
▁ნაწარ	-13938
▁შაბათ	-13939
ზიანებს	-13940
ოლოგები	-13941
▁ასტრონ	-13942
▁გარდაუ	-13943
▁ღმერთო	-13944
▁შაბათი	-13945
▁აღნიშვნ	-13946
▁იარაღით	-13947
▁საშიშია	-13948
ესალმებით	-13949
▁განსახილ	-13950
▁დავუბრუნ	-13951
▁დისკრედი	-13952
▁მაქსიმუმ	-13953
▁კაპიტალის	-13954
▁ოკუპაციის	-13955
▁ოპერატიული	-13956
▁გამოწვეულია	-13957
▁მენეჯმენტის	-13958
▁წარმატებები	-13959
▁ღონისძიებაზე	-13960
to	-13961
ლილ	-13962
ომო	-13963
შაფ	-13964
შიფ	-13965
ვალო	-13966
▁რიჩ	-13967
▁ურჩ	-13968
ლაძის	-13969
ხედოთ	-13970
▁ტაქს	-13971
▁ჭიათ	-13972
უფლები	-13973
▁ავთან	-13974
▁დემონ	-13975
▁ვადამ	-13976
▁ჰიბრი	-13977
▁წესებს	-13978
▁გარემონტ	-13979
▁მივიდნენ	-13980
▁ტრადიცია	-13981
▁ტურნირის	-13982
▁ფუნქციას	-13983
▁ცხოველის	-13984
▁არსებობენ	-13985
▁თავისთვის	-13986
▁მოგზაურობ	-13987
▁ნაკლებობა	-13988
▁პაციენტები	-13989
▁საძინებელი	-13990
▁აუცილებლობა	-13991
▁დამტკიცების	-13992
▁ინიციატივის	-13993
▁კანდიდატების	-13994
▁წარმოიქმნება	-13995
▁ინდივიდუალურად	-13996
მორ	-13997
▁აე	-13998
▁წწ	-13999
პყრო	-14000
უსაფ	-14001
რეზონ	-14002
▁ბინძ	-14003
▁თრომ	-14004
▁ჩაან	-14005
ენიდან	-14006
ოლების	-14007
ურებით	-14008
▁გადაბ	-14009
▁თანაგ	-14010
▁მაჭავ	-14011
ონტაქტო	-14012
ულტაციო	-14013
▁ბოკერი	-14014
▁დიეტის	-14015
▁კარაქი	-14016
▁მყუდრო	-14017
▁საფლავ	-14018
▁ფერები	-14019
▁ჯარიმა	-14020
▁მკვდარი	-14021
▁პროგრესი	-14022
▁სიკვდილს	-14023
▁ჩაუტარდა	-14024
▁წესრიგის	-14025
თავისუფალი	-14026
▁გამოავლინა	-14027
▁ტანსაცმლის	-14028
▁არასასურველი	-14029
%)	-14030
FO	-14031
ди	-14032
ebs	-14033
▁Rep	-14034
▁gam	-14035
▁სილ	-14036
გრანტ	-14037
▁ერაყ	-14038
▁ჩხუბ	-14039
▁ჯონს	-14040
ებელში	-14041
▁ელჩმა	-14042
ონტროლო	-14043
▁შეხედა	-14044
▁ანალოგი	-14045
▁მიაყენა	-14046
▁ინფექცია	-14047
▁საფუძვლი	-14048
▁ფასეულობ	-14049
▁თვალსაჩინო	-14050
▁თვისებების	-14051
▁უმასპინძლა	-14052
▁ფეხსაცმელი	-14053
▁ავიაკომპანი	-14054
▁თვითმფრინავი	-14055
▁ფუნქციონირებს	-14056
▁წარმომადგენელთა	-14057
SP	-14058
me	-14059
pg	-14060
ase	-14061
მცი	-14062
ვოცი	-14063
ილეს	-14064
რომა	-14065
ასწავ	-14066
აცნობ	-14067
ოქროს	-14068
წეროთ	-14069
▁ბული	-14070
▁ნიორი	-14071
▁საათს	-14072
▁თანადგ	-14073
▁იმოქმე	-14074
▁ცოტათი	-14075
▁ეკრანზე	-14076
▁თანაშემ	-14077
▁მარცვლე	-14078
▁ამოცანაა	-14079
▁გახსნილი	-14080
▁მივდივარ	-14081
▁რეფერენდ	-14082
▁კანდიდატს	-14083
▁ორგანიზმი	-14084
▁რუსეთიდან	-14085
▁ტესტირების	-14086
▁პრობლემებზე	-14087
▁აკმაყოფილებს	-14088
▁გასათვალისწინ	-14089
ტკო	-14090
ხდა	-14091
ჰიდ	-14092
აააა	-14093
ადვი	-14094
სიდი	-14095
ულეტ	-14096
▁პეკ	-14097
▁ქლო	-14098
▁შრი	-14099
ადებს	-14100
ფიქრა	-14101
▁დახვ	-14102
▁კოსტ	-14103
ებოდათ	-14104
ტუალურ	-14105
▁გაბედ	-14106
▁მიჩნე	-14107
წმინდეს	-14108
▁ალიანს	-14109
▁ნახსენ	-14110
▁მრგვალი	-14111
▁მშვენიერ	-14112
▁გამგეობის	-14113
▁გამყრელიძე	-14114
▁ელემენტები	-14115
▁სასიცოცხლო	-14116
▁გამოვლენილი	-14117
▁გამოწვევები	-14118
▁ტრადიციულად	-14119
▁Г	-14120
არსა	-14121
იმეს	-14122
კრის	-14123
რიტი	-14124
ქესო	-14125
ბაიერ	-14126
ერიის	-14127
▁ბაზრ	-14128
▁მოინ	-14129
▁სამს	-14130
▁საყრ	-14131
▁ტყუპ	-14132
▁ბუნდო	-14133
▁დავის	-14134
▁დრამა	-14135
▁ზონის	-14136
▁იმედს	-14137
▁ტვინი	-14138
▁ხეები	-14139
ცედენტო	-14140
▁ეცადეთ	-14141
▁თიბისი	-14142
▁იტალია	-14143
▁შემოვი	-14144
ლებასთან	-14145
ოგრაფიის	-14146
▁აღმოვაჩ	-14147
▁გაცემის	-14148
▁მეოთხედ	-14149
▁ოჯახებს	-14150
▁სისწრაფ	-14151
▁დაქორწინ	-14152
▁დედოფალი	-14153
▁დიდებული	-14154
▁მიყვარხარ	-14155
▁სიტუაციას	-14156
▁ჩამოტვირთ	-14157
▁დაინტერესდა	-14158
ся	-14159
ბუ	-14160
ეშვა	-14161
▁ფაბ	-14162
ობათა	-14163
▁ტირი	-14164
▁ჩავთ	-14165
▁ავეჯი	-14166
▁მორწყ	-14167
▁პოეტი	-14168
▁სამიტ	-14169
▁უყვარ	-14170
▁ღირსი	-14171
▁წილის	-14172
▁ხვალი	-14173
▁გავხდი	-14174
▁მანანა	-14175
პატრიარქ	-14176
▁დაამატა	-14177
▁დაგვიან	-14178
▁თემებზე	-14179
▁მშობელი	-14180
▁ოლიმპია	-14181
▁სხეულზე	-14182
▁უმცროსი	-14183
▁ცხოველთა	-14184
▁ველოდებით	-14185
▁ინტერესის	-14186
▁კრიპტოვალ	-14187
▁დამუშავების	-14188
ки	-14189
ци	-14190
The	-14191
vis	-14192
ско	-14193
ებე	-14194
ქოს	-14195
▁se	-14196
▁ქე	-14197
ავზე	-14198
ზემო	-14199
ინდი	-14200
▁ვაი	-14201
▁ნაბ	-14202
▁ჭირ	-14203
ვიდეთ	-14204
▁იერი	-14205
▁რაცი	-14206
▁ბათუმ	-14207
▁გავლა	-14208
▁გამიკ	-14209
▁გთხოვ	-14210
▁ათეული	-14211
▁კანონს	-14212
▁უარესი	-14213
▁უეცრად	-14214
ationshi	-14215
▁დაისვენ	-14216
▁ნაკრებს	-14217
▁პრესტიჟ	-14218
▁გაწმენდა	-14219
▁დაბალანს	-14220
▁დარჩენილ	-14221
▁სასწაული	-14222
▁სესხების	-14223
▁ტრადიციულ	-14224
▁ფაქტორები	-14225
▁კონკურენციის	-14226
▁შენარჩუნებას	-14227
▁გამოქვეყნებულია	-14228
amp	-14229
უთა	-14230
წიე	-14231
▁or	-14232
▁უდ	-14233
ანსა	-14234
ლოვი	-14235
მინე	-14236
ოპარ	-14237
▁ანჯ	-14238
▁ბოს	-14239
▁პიტ	-14240
▁ჰენ	-14241
არიცხ	-14242
▁ბრონ	-14243
▁დადი	-14244
▁სასო	-14245
▁ფონი	-14246
გიორგი	-14247
გრანტო	-14248
▁გაგვე	-14249
▁კანზე	-14250
▁პავლე	-14251
▁წევრს	-14252
▁გადაიღ	-14253
▁კუთვნი	-14254
▁მხარემ	-14255
▁ნარევი	-14256
▁საშობა	-14257
▁ჩვენში	-14258
▁ცენტრს	-14259
ნაკლებად	-14260
▁დროიდან	-14261
▁ივნისში	-14262
▁სირიაში	-14263
▁ცალკეულ	-14264
▁გადამოწმ	-14265
▁საკარანტ	-14266
▁შემავალი	-14267
▁ცრემლები	-14268
▁ბრძანებით	-14269
▁გადარჩენა	-14270
▁პროცესებს	-14271
▁შეამოწმეთ	-14272
▁მოსწავლეთა	-14273
▁მშვენივრად	-14274
▁პედაგოგები	-14275
▁გამონაკლისი	-14276
▁მნიშვნელობაზე	-14277
­­	-14278
ubl	-14279
ბში	-14280
იცი	-14281
კაი	-14282
ობო	-14283
ავსა	-14284
კელი	-14285
სოვთ	-14286
▁სრო	-14287
ველებ	-14288
ცველი	-14289
▁სავი	-14290
▁წვლი	-14291
ულებას	-14292
▁კერძი	-14293
▁ვაშლის	-14294
▁ცოდნას	-14295
▁გახსნას	-14296
▁სიხშირე	-14297
▁წარსული	-14298
▁წასვლას	-14299
▁ჯგუფური	-14300
▁დაუცველი	-14301
▁ენერგიას	-14302
▁ერთობლივ	-14303
▁მოგიწევთ	-14304
▁ნახშირწყ	-14305
▁რეალობას	-14306
▁დაქვემდებ	-14307
▁ესპანეთში	-14308
▁ანალოგიური	-14309
▁გაამახვილა	-14310
▁დასრულებული	-14311
▁ხელმძღვანელობდა	-14312
ket	-14313
უმშ	-14314
▁pr	-14315
▁ეტ	-14316
▁ვმ	-14317
უბრა	-14318
ჯექი	-14319
▁თინ	-14320
▁შოტ	-14321
▁ცივ	-14322
▁წავ	-14323
xadeb	-14324
ვებდა	-14325
მარაგ	-14326
▁გააგ	-14327
▁დაუნ	-14328
▁ფრენ	-14329
ისმცემ	-14330
▁აუდიო	-14331
▁გურჯა	-14332
▁დაჯავ	-14333
▁ენერგ	-14334
▁ერთია	-14335
▁ეწვია	-14336
▁ვეძებ	-14337
▁იესოს	-14338
▁ოლქში	-14339
▁ხომალ	-14340
▁უბანში	-14341
▁უწყვეტი	-14342
▁არჩევანს	-14343
▁კოლექცია	-14344
▁Instagram	-14345
▁პატრიარქი	-14346
▁კურსდამთავ	-14347
▁ნატურალური	-14348
▁ორგანიზება	-14349
▁დარწმუნებულია	-14350
ბრა	-14351
News	-14352
ნოში	-14353
▁ფუძ	-14354
ეროვნ	-14355
▁მეტა	-14356
▁მიაგ	-14357
არებას	-14358
ლობებს	-14359
▁ბინად	-14360
▁მეთქი	-14361
▁საშემ	-14362
▁სქელი	-14363
▁ღორის	-14364
▁ჰოლივ	-14365
ანგარიშ	-14366
ებელთან	-14367
წყობილი	-14368
▁ნატოში	-14369
▁სანახა	-14370
▁სარალი	-14371
▁გაამართ	-14372
▁დაჭერით	-14373
▁მთვარის	-14374
▁ბორჯომის	-14375
▁დაგეგმილ	-14376
▁კვლევაში	-14377
▁მიმართვა	-14378
▁ნაკრებმა	-14379
▁პლატფორმ	-14380
▁პროფესორ	-14381
▁შევძლებთ	-14382
▁რიგგარეშე	-14383
▁სწავლობდა	-14384
▁ფუნქციები	-14385
▁ცდილობდნენ	-14386
▁პოტენციალის	-14387
▁გამოცხადების	-14388
▁კონსტიტუციური	-14389
ani	-14390
uss	-14391
▁წთ	-14392
▁სიჩ	-14393
.....	-14394
ელსის	-14395
წონდა	-14396
▁გამგ	-14397
▁გვას	-14398
▁სააბ	-14399
▁სიარ	-14400
ებელზე	-14401
▁ბალახ	-14402
▁გასცა	-14403
▁გატეხ	-14404
▁ელოდა	-14405
▁სესხი	-14406
▁უფალს	-14407
▁ხიდის	-14408
ეიშვილი	-14409
▁ალექსი	-14410
ancxadeb	-14411
▁ვიღაცას	-14412
▁იმუნური	-14413
▁ნიადაგი	-14414
▁სასტიკი	-14415
▁სურვილს	-14416
▁ამერიკელ	-14417
▁გადააჭარ	-14418
▁ვაპირებთ	-14419
▁მოახდენს	-14420
▁მორალური	-14421
▁სახელები	-14422
▁ტურისტულ	-14423
▁მიღებისას	-14424
▁პერსონალი	-14425
▁პირადობის	-14426
▁პრინციპით	-14427
▁სექსუალურ	-14428
▁დამკვირვებ	-14429
▁მოქმედებას	-14430
▁მკვლელობაში	-14431
▁პრეპარატები	-14432
▁პრინციპების	-14433
▁უპრეცედენტო	-14434
▁კონფიდენციალ	-14435
VPN	-14436
ტრე	-14437
ვინი	-14438
ხალი	-14439
▁Res	-14440
▁იდგ	-14441
არჯიმ	-14442
დებდა	-14443
▁გაზომ	-14444
▁ვალუტ	-14445
ლებულია	-14446
▁ბასილა	-14447
▁თხილის	-14448
▁სახლები	-14449
▁დასასვენ	-14450
▁კორპუსში	-14451
▁gancxadeb	-14452
▁ვერასდროს	-14453
▁თამაშობდა	-14454
▁სიმაღლეზე	-14455
▁მტკივნეული	-14456
▁პლასტმასის	-14457
▁პრინციპები	-14458
▁ჭავჭავაძის	-14459
▁მშენებლობას	-14460
▁ანაზღაურების	-14461
თიბ	-14462
ნატ	-14463
▁us	-14464
ადგა	-14465
აჩაღ	-14466
კულო	-14467
ქმის	-14468
ჩნევ	-14469
▁ეგო	-14470
▁ზის	-14471
▁ნოე	-14472
დელად	-14473
ვალია	-14474
პუბლი	-14475
ღმერთ	-14476
ხანაგ	-14477
▁ანრი	-14478
▁ვარდ	-14479
▁ივან	-14480
▁მაძი	-14481
▁მოპყ	-14482
▁ცვალ	-14483
ქორწინ	-14484
წერება	-14485
ხატვრო	-14486
▁მონათ	-14487
▁რაგბი	-14488
sputnik	-14489
▁ეშინია	-14490
▁ვებსაი	-14491
▁იცნობს	-14492
▁ავტორები	-14493
▁განაჩენი	-14494
▁ჩართულობა	-14495
▁ბუნებრივად	-14496
▁სამართალდარ	-14497
▁gancxadebebi	-14498
▁ამომრჩეველთა	-14499
ve	-14500
yn	-14501
უუ	-14502
ჯს	-14503
როზი	-14504
როში	-14505
მაშინ	-14506
▁თინა	-14507
▁ფეხმ	-14508
ალიანი	-14509
ვებოდა	-14510
▁მოასწ	-14511
▁აგენტი	-14512
▁გაზიარ	-14513
▁მახსენ	-14514
▁მონდომ	-14515
▁უბანზე	-14516
▁ფიზიკა	-14517
ტირებული	-14518
▁გამონათ	-14519
▁დათვალი	-14520
▁მეთოდის	-14521
▁ფხვნილი	-14522
▁ატარებენ	-14523
▁მილიონზე	-14524
▁მოწყობის	-14525
▁უკრაინას	-14526
▁წარმომავ	-14527
▁ხვდებიან	-14528
ationships	-14529
▁განხილული	-14530
▁მხარეებმა	-14531
▁გავლენიანი	-14532
▁პოლიტიკოსი	-14533
▁შეხვედრებს	-14534
▁ცხოვრებაზე	-14535
▁გამსახურდიას	-14536
▁საცხოვრებლად	-14537
▁უნივერსალური	-14538
kh	-14539
ათბ	-14540
ედს	-14541
ზღუ	-14542
▁ra	-14543
ებლი	-14544
უნას	-14545
წიეთ	-14546
▁are	-14547
▁უნა	-14548
დგინა	-14549
ნოზის	-14550
რთული	-14551
▁ბომბ	-14552
▁ესთე	-14553
▁მარს	-14554
▁ხოდა	-14555
▁ჰარი	-14556
ვალება	-14557
კომოტი	-14558
ურიდან	-14559
▁საპატ	-14560
▁აშენდა	-14561
▁დაუმატ	-14562
უსაფრთხო	-14563
▁გაივლის	-14564
▁ლანდშაფ	-14565
▁განიცადა	-14566
▁მიიჩნევა	-14567
▁ნორმების	-14568
▁პროცესია	-14569
ყვანისმცემ	-14570
▁რესტორანი	-14571
▁წარუდგინა	-14572
▁ორგანიზაციებს	-14573
urn	-14574
მუს	-14575
▁не	-14576
ამომ	-14577
––––	-14578
▁you	-14579
ბოლოს	-14580
შვიდე	-14581
▁ქმნი	-14582
▁ცოლს	-14583
▁ვთვლი	-14584
▁გაიგეთ	-14585
▁ინდექს	-14586
▁ტიტული	-14587
▁ტკბილე	-14588
▁ვიფიქრე	-14589
▁კრემლის	-14590
▁მითხრეს	-14591
▁ფესვები	-14592
▁ხანძარი	-14593
▁თანხების	-14594
▁საგრანტო	-14595
▁ელოდებიან	-14596
▁სჭირდებოდა	-14597
▁კონცენტრაცია	-14598
▁შემსრულებელი	-14599
ინტერპრესნიუსს	-14600
▁განხორციელებულ	-14601
▁ჩამოყალიბებული	-14602
ოღ	-14603
lob	-14604
აბერ	-14605
ლეტი	-14606
▁ლუი	-14607
▁ომს	-14608
▁ჯეკ	-14609
დებმა	-14610
ლებსა	-14611
▁that	-14612
▁გავს	-14613
▁ვენე	-14614
▁ზონა	-14615
▁შარლ	-14616
▁შეაგ	-14617
ვლების	-14618
▁გასახ	-14619
▁დავან	-14620
▁ქარის	-14621
პროტესტ	-14622
▁ამოიღო	-14623
▁ნავთობ	-14624
▁ერთერთი	-14625
▁მაგიდის	-14626
▁ფასიანი	-14627
▁აკეთებდა	-14628
▁გადატანა	-14629
▁გახანგრძ	-14630
▁ხელმოწერ	-14631
[...]
